#include "magic_wand_model_data.h"

// We need to keep the data array aligned on some architectures.
#ifdef __has_attribute
#define HAVE_ATTRIBUTE(x) __has_attribute(x)
#else
#define HAVE_ATTRIBUTE(x) 0
#endif
#if HAVE_ATTRIBUTE(aligned) || (defined(__GNUC__) && !defined(__clang__))
#define DATA_ALIGN_ATTRIBUTE __attribute__((aligned(4)))
#else
#define DATA_ALIGN_ATTRIBUTE
#endif

const unsigned char g_magic_wand_model_data[] DATA_ALIGN_ATTRIBUTE = {
0x1c, 0x00, 0x00, 0x00, 0x54, 0x46, 0x4c, 0x33, 0x14, 0x00, 0x20, 0x00,
  0x04, 0x00, 0x08, 0x00, 0x0c, 0x00, 0x10, 0x00, 0x14, 0x00, 0x00, 0x00,
  0x18, 0x00, 0x1c, 0x00, 0x14, 0x00, 0x00, 0x00, 0x03, 0x00, 0x00, 0x00,
  0x18, 0x00, 0x00, 0x00, 0x2c, 0x00, 0x00, 0x00, 0xd8, 0x00, 0x00, 0x00,
  0x2c, 0x00, 0x00, 0x00, 0x80, 0x00, 0x00, 0x00, 0x78, 0x00, 0x00, 0x00,
  0x05, 0x00, 0x00, 0x00, 0x28, 0x07, 0x00, 0x00, 0x44, 0x06, 0x00, 0x00,
  0xbc, 0x03, 0x00, 0x00, 0xf8, 0x02, 0x00, 0x00, 0xac, 0x01, 0x00, 0x00,
  0x01, 0x00, 0x00, 0x00, 0xd0, 0x00, 0x00, 0x00, 0x14, 0x00, 0x00, 0x00,
  0xdc, 0x32, 0x00, 0x00, 0xd8, 0x32, 0x00, 0x00, 0xd0, 0x31, 0x00, 0x00,
  0x1c, 0x31, 0x00, 0x00, 0x74, 0x30, 0x00, 0x00, 0xfc, 0x2f, 0x00, 0x00,
  0x90, 0x2f, 0x00, 0x00, 0x40, 0x13, 0x00, 0x00, 0xec, 0x11, 0x00, 0x00,
  0x10, 0x10, 0x00, 0x00, 0xb4, 0x07, 0x00, 0x00, 0xb0, 0x32, 0x00, 0x00,
  0xac, 0x32, 0x00, 0x00, 0xa8, 0x32, 0x00, 0x00, 0xa4, 0x32, 0x00, 0x00,
  0xa0, 0x32, 0x00, 0x00, 0x9c, 0x32, 0x00, 0x00, 0x98, 0x32, 0x00, 0x00,
  0x94, 0x32, 0x00, 0x00, 0x3c, 0x00, 0x00, 0x00, 0x00, 0x00, 0x00, 0x00,
  0x01, 0x00, 0x00, 0x00, 0x0c, 0x00, 0x00, 0x00, 0x08, 0x00, 0x0c, 0x00,
  0x04, 0x00, 0x08, 0x00, 0x08, 0x00, 0x00, 0x00, 0x08, 0x00, 0x00, 0x00,
  0x13, 0x00, 0x00, 0x00, 0x13, 0x00, 0x00, 0x00, 0x6d, 0x69, 0x6e, 0x5f,
  0x72, 0x75, 0x6e, 0x74, 0x69, 0x6d, 0x65, 0x5f, 0x76, 0x65, 0x72, 0x73,
  0x69, 0x6f, 0x6e, 0x00, 0xb6, 0xce, 0xff, 0xff, 0x04, 0x00, 0x00, 0x00,
  0x10, 0x00, 0x00, 0x00, 0x31, 0x2e, 0x35, 0x2e, 0x30, 0x00, 0x00, 0x00,
  0x00, 0x00, 0x00, 0x00, 0x00, 0x00, 0x00, 0x00, 0x0f, 0x00, 0x00, 0x00,
  0x4d, 0x4c, 0x49, 0x52, 0x20, 0x43, 0x6f, 0x6e, 0x76, 0x65, 0x72, 0x74,
  0x65, 0x64, 0x2e, 0x00, 0x00, 0x00, 0x0e, 0x00, 0x18, 0x00, 0x04, 0x00,
  0x08, 0x00, 0x0c, 0x00, 0x10, 0x00, 0x14, 0x00, 0x0e, 0x00, 0x00, 0x00,
  0x14, 0x00, 0x00, 0x00, 0x5c, 0x00, 0x00, 0x00, 0x60, 0x00, 0x00, 0x00,
  0x64, 0x00, 0x00, 0x00, 0x84, 0x00, 0x00, 0x00, 0x12, 0x00, 0x00, 0x00,
  0x9c, 0x31, 0x00, 0x00, 0x2c, 0x31, 0x00, 0x00, 0x88, 0x30, 0x00, 0x00,
  0xe0, 0x2f, 0x00, 0x00, 0x38, 0x2f, 0x00, 0x00, 0xd4, 0x2e, 0x00, 0x00,
  0x6c, 0x2e, 0x00, 0x00, 0x18, 0x12, 0x00, 0x00, 0xbc, 0x10, 0x00, 0x00,
  0xe0, 0x0e, 0x00, 0x00, 0x0c, 0x06, 0x00, 0x00, 0x28, 0x05, 0x00, 0x00,
  0xe8, 0x03, 0x00, 0x00, 0x3c, 0x03, 0x00, 0x00, 0x98, 0x02, 0x00, 0x00,
  0xd4, 0x01, 0x00, 0x00, 0x10, 0x01, 0x00, 0x00, 0x84, 0x00, 0x00, 0x00,
  0x01, 0x00, 0x00, 0x00, 0x00, 0x00, 0x00, 0x00, 0x01, 0x00, 0x00, 0x00,
  0x11, 0x00, 0x00, 0x00, 0x08, 0x00, 0x00, 0x00, 0x74, 0x05, 0x00, 0x00,
  0x94, 0x04, 0x00, 0x00, 0x78, 0x03, 0x00, 0x00, 0xbc, 0x02, 0x00, 0x00,
  0x30, 0x02, 0x00, 0x00, 0x50, 0x01, 0x00, 0x00, 0xa8, 0x00, 0x00, 0x00,
  0x10, 0x00, 0x00, 0x00, 0x04, 0x00, 0x00, 0x00, 0x6d, 0x61, 0x69, 0x6e,
  0x00, 0x00, 0x00, 0x00, 0x7a, 0xff, 0xff, 0xff, 0x00, 0x00, 0x00, 0x09,
  0x04, 0x00, 0x00, 0x00, 0x1c, 0x00, 0x00, 0x00, 0x10, 0x00, 0x00, 0x00,
  0x04, 0x00, 0x00, 0x00, 0xb2, 0xcf, 0xff, 0xff, 0x00, 0x00, 0x80, 0x3f,
  0x01, 0x00, 0x00, 0x00, 0x11, 0x00, 0x00, 0x00, 0x01, 0x00, 0x00, 0x00,
  0x10, 0x00, 0x00, 0x00, 0xa0, 0xfa, 0xff, 0xff, 0x19, 0x00, 0x00, 0x00,
  0x00, 0x00, 0x00, 0x19, 0x01, 0x00, 0x00, 0x00, 0x40, 0xcf, 0xff, 0xff,
  0x14, 0x00, 0x00, 0x00, 0x12, 0x00, 0x00, 0x00, 0x18, 0x00, 0x00, 0x00,
  0x30, 0x00, 0x00, 0x00, 0x20, 0x00, 0x00, 0x00, 0x02, 0x00, 0x00, 0x00,
  0x01, 0x00, 0x00, 0x00, 0x04, 0x00, 0x00, 0x00, 0x08, 0x00, 0x00, 0x00,
  0x49, 0x64, 0x65, 0x6e, 0x74, 0x69, 0x74, 0x79, 0x00, 0x00, 0x00, 0x00,
  0x02, 0x00, 0x00, 0x00, 0xff, 0xff, 0xff, 0xff, 0x04, 0x00, 0x00, 0x00,
  0x24, 0xd0, 0xff, 0xff, 0x00, 0x00, 0x0e, 0x00, 0x18, 0x00, 0x08, 0x00,
  0x0c, 0x00, 0x10, 0x00, 0x07, 0x00, 0x14, 0x00, 0x0e, 0x00, 0x00, 0x00,
  0x00, 0x00, 0x00, 0x08, 0x03, 0x00, 0x00, 0x00, 0x18, 0x00, 0x00, 0x00,
  0x0c, 0x00, 0x00, 0x00, 0x04, 0x00, 0x00, 0x00, 0x40, 0xcf, 0xff, 0xff,
  0x01, 0x00, 0x00, 0x00, 0x10, 0x00, 0x00, 0x00, 0x03, 0x00, 0x00, 0x00,
  0x0f, 0x00, 0x00, 0x00, 0x07, 0x00, 0x00, 0x00, 0x04, 0x00, 0x00, 0x00,
  0xc8, 0xcf, 0xff, 0xff, 0x14, 0x00, 0x00, 0x00, 0x11, 0x00, 0x00, 0x00,
  0x18, 0x00, 0x00, 0x00, 0x5c, 0x00, 0x00, 0x00, 0x4c, 0x00, 0x00, 0x00,
  0x02, 0x00, 0x00, 0x00, 0x01, 0x00, 0x00, 0x00, 0x04, 0x00, 0x00, 0x00,
  0x34, 0x00, 0x00, 0x00, 0x73, 0x65, 0x71, 0x75, 0x65, 0x6e, 0x74, 0x69,
  0x61, 0x6c, 0x2f, 0x64, 0x65, 0x6e, 0x73, 0x65, 0x5f, 0x31, 0x2f, 0x4d,
  0x61, 0x74, 0x4d, 0x75, 0x6c, 0x3b, 0x73, 0x65, 0x71, 0x75, 0x65, 0x6e,
  0x74, 0x69, 0x61, 0x6c, 0x2f, 0x64, 0x65, 0x6e, 0x73, 0x65, 0x5f, 0x31,
  0x2f, 0x42, 0x69, 0x61, 0x73, 0x41, 0x64, 0x64, 0x00, 0x00, 0x00, 0x00,
  0x02, 0x00, 0x00, 0x00, 0xff, 0xff, 0xff, 0xff, 0x04, 0x00, 0x00, 0x00,
  0xc8, 0xcf, 0xff, 0xff, 0xda, 0xfc, 0xff, 0xff, 0x00, 0x00, 0x00, 0x08,
  0x03, 0x00, 0x00, 0x00, 0x24, 0x00, 0x00, 0x00, 0x18, 0x00, 0x00, 0x00,
  0x0c, 0x00, 0x00, 0x00, 0x00, 0x00, 0x06, 0x00, 0x08, 0x00, 0x07, 0x00,
  0x06, 0x00, 0x00, 0x00, 0x00, 0x00, 0x00, 0x01, 0x01, 0x00, 0x00, 0x00,
  0x0f, 0x00, 0x00, 0x00, 0x03, 0x00, 0x00, 0x00, 0x0e, 0x00, 0x00, 0x00,
  0x06, 0x00, 0x00, 0x00, 0x03, 0x00, 0x00, 0x00, 0xe8, 0xfb, 0xff, 0xff,
  0x09, 0x00, 0x00, 0x00, 0x00, 0x00, 0x00, 0x09, 0x01, 0x00, 0x00, 0x00,
  0x88, 0xd0, 0xff, 0xff, 0x14, 0x00, 0x00, 0x00, 0x10, 0x00, 0x00, 0x00,
  0x18, 0x00, 0x00, 0x00, 0x6c, 0x00, 0x00, 0x00, 0x5c, 0x00, 0x00, 0x00,
  0x02, 0x00, 0x00, 0x00, 0x01, 0x00, 0x00, 0x00, 0x10, 0x00, 0x00, 0x00,
  0x46, 0x00, 0x00, 0x00, 0x73, 0x65, 0x71, 0x75, 0x65, 0x6e, 0x74, 0x69,
  0x61, 0x6c, 0x2f, 0x64, 0x65, 0x6e, 0x73, 0x65, 0x2f, 0x4d, 0x61, 0x74,
  0x4d, 0x75, 0x6c, 0x3b, 0x73, 0x65, 0x71, 0x75, 0x65, 0x6e, 0x74, 0x69,
  0x61, 0x6c, 0x2f, 0x64, 0x65, 0x6e, 0x73, 0x65, 0x2f, 0x52, 0x65, 0x6c,
  0x75, 0x3b, 0x73, 0x65, 0x71, 0x75, 0x65, 0x6e, 0x74, 0x69, 0x61, 0x6c,
  0x2f, 0x64, 0x65, 0x6e, 0x73, 0x65, 0x2f, 0x42, 0x69, 0x61, 0x73, 0x41,
  0x64, 0x64, 0x00, 0x00, 0x02, 0x00, 0x00, 0x00, 0xff, 0xff, 0xff, 0xff,
  0x10, 0x00, 0x00, 0x00, 0xa8, 0xd1, 0xff, 0xff, 0x00, 0x00, 0x0a, 0x00,
  0x10, 0x00, 0x04, 0x00, 0x08, 0x00, 0x0c, 0x00, 0x0a, 0x00, 0x00, 0x00,
  0x02, 0x00, 0x00, 0x00, 0x10, 0x00, 0x00, 0x00, 0x04, 0x00, 0x00, 0x00,
  0x01, 0x00, 0x00, 0x00, 0x0e, 0x00, 0x00, 0x00, 0x02, 0x00, 0x00, 0x00,
  0x0d, 0x00, 0x00, 0x00, 0x05, 0x00, 0x00, 0x00, 0xa8, 0xfc, 0xff, 0xff,
  0x16, 0x00, 0x00, 0x00, 0x00, 0x00, 0x00, 0x16, 0x01, 0x00, 0x00, 0x00,
  0x48, 0xd1, 0xff, 0xff, 0x14, 0x00, 0x00, 0x00, 0x0f, 0x00, 0x00, 0x00,
  0x18, 0x00, 0x00, 0x00, 0x40, 0x00, 0x00, 0x00, 0x30, 0x00, 0x00, 0x00,
  0x02, 0x00, 0x00, 0x00, 0x01, 0x00, 0x00, 0x00, 0x70, 0x00, 0x00, 0x00,
  0x1a, 0x00, 0x00, 0x00, 0x73, 0x65, 0x71, 0x75, 0x65, 0x6e, 0x74, 0x69,
  0x61, 0x6c, 0x2f, 0x66, 0x6c, 0x61, 0x74, 0x74, 0x65, 0x6e, 0x2f, 0x52,
  0x65, 0x73, 0x68, 0x61, 0x70, 0x65, 0x00, 0x00, 0x02, 0x00, 0x00, 0x00,
  0xff, 0xff, 0xff, 0xff, 0x70, 0x00, 0x00, 0x00, 0x2c, 0xd1, 0xff, 0xff,
  0x3e, 0xfe, 0xff, 0xff, 0x00, 0x00, 0x00, 0x05, 0x01, 0x00, 0x00, 0x00,
  0x38, 0x00, 0x00, 0x00, 0x2c, 0x00, 0x00, 0x00, 0x14, 0x00, 0x00, 0x00,
  0x00, 0x00, 0x0e, 0x00, 0x14, 0x00, 0x00, 0x00, 0x10, 0x00, 0x0c, 0x00,
  0x08, 0x00, 0x04, 0x00, 0x0e, 0x00, 0x00, 0x00, 0x03, 0x00, 0x00, 0x00,
  0x01, 0x00, 0x00, 0x00, 0x03, 0x00, 0x00, 0x00, 0x01, 0x00, 0x00, 0x00,
  0x01, 0x00, 0x00, 0x00, 0x0d, 0x00, 0x00, 0x00, 0x01, 0x00, 0x00, 0x00,
  0x0c, 0x00, 0x00, 0x00, 0xe8, 0xd1, 0xff, 0xff, 0x14, 0x00, 0x00, 0x00,
  0x0e, 0x00, 0x00, 0x00, 0x20, 0x00, 0x00, 0x00, 0x58, 0x00, 0x00, 0x00,
  0x40, 0x00, 0x00, 0x00, 0x04, 0x00, 0x00, 0x00, 0x01, 0x00, 0x00, 0x00,
  0x07, 0x00, 0x00, 0x00, 0x01, 0x00, 0x00, 0x00, 0x10, 0x00, 0x00, 0x00,
  0x22, 0x00, 0x00, 0x00, 0x73, 0x65, 0x71, 0x75, 0x65, 0x6e, 0x74, 0x69,
  0x61, 0x6c, 0x2f, 0x6d, 0x61, 0x78, 0x5f, 0x70, 0x6f, 0x6f, 0x6c, 0x69,
  0x6e, 0x67, 0x32, 0x64, 0x5f, 0x31, 0x2f, 0x4d, 0x61, 0x78, 0x50, 0x6f,
  0x6f, 0x6c, 0x00, 0x00, 0x04, 0x00, 0x00, 0x00, 0xff, 0xff, 0xff, 0xff,
  0x07, 0x00, 0x00, 0x00, 0x01, 0x00, 0x00, 0x00, 0x10, 0x00, 0x00, 0x00,
  0xe4, 0xd1, 0xff, 0xff, 0x1a, 0xfe, 0xff, 0xff, 0x00, 0x00, 0x00, 0x01,
  0x24, 0x00, 0x00, 0x00, 0x18, 0x00, 0x00, 0x00, 0x04, 0x00, 0x00, 0x00,
  0x0c, 0xfe, 0xff, 0xff, 0x01, 0x00, 0x00, 0x00, 0x01, 0x00, 0x00, 0x00,
  0x00, 0x00, 0x00, 0x01, 0x01, 0x00, 0x00, 0x00, 0x0c, 0x00, 0x00, 0x00,
  0x03, 0x00, 0x00, 0x00, 0x0b, 0x00, 0x00, 0x00, 0x09, 0x00, 0x00, 0x00,
  0x02, 0x00, 0x00, 0x00, 0x90, 0xd2, 0xff, 0xff, 0x14, 0x00, 0x00, 0x00,
  0x0d, 0x00, 0x00, 0x00, 0x20, 0x00, 0x00, 0x00, 0xb8, 0x00, 0x00, 0x00,
  0xa0, 0x00, 0x00, 0x00, 0x04, 0x00, 0x00, 0x00, 0x01, 0x00, 0x00, 0x00,
  0x15, 0x00, 0x00, 0x00, 0x01, 0x00, 0x00, 0x00, 0x10, 0x00, 0x00, 0x00,
  0x83, 0x00, 0x00, 0x00, 0x73, 0x65, 0x71, 0x75, 0x65, 0x6e, 0x74, 0x69,
  0x61, 0x6c, 0x2f, 0x63, 0x6f, 0x6e, 0x76, 0x32, 0x64, 0x5f, 0x31, 0x2f,
  0x52, 0x65, 0x6c, 0x75, 0x3b, 0x73, 0x65, 0x71, 0x75, 0x65, 0x6e, 0x74,
  0x69, 0x61, 0x6c, 0x2f, 0x63, 0x6f, 0x6e, 0x76, 0x32, 0x64, 0x5f, 0x31,
  0x2f, 0x42, 0x69, 0x61, 0x73, 0x41, 0x64, 0x64, 0x3b, 0x73, 0x65, 0x71,
  0x75, 0x65, 0x6e, 0x74, 0x69, 0x61, 0x6c, 0x2f, 0x63, 0x6f, 0x6e, 0x76,
  0x32, 0x64, 0x5f, 0x31, 0x2f, 0x43, 0x6f, 0x6e, 0x76, 0x32, 0x44, 0x3b,
  0x73, 0x65, 0x71, 0x75, 0x65, 0x6e, 0x74, 0x69, 0x61, 0x6c, 0x2f, 0x63,
  0x6f, 0x6e, 0x76, 0x32, 0x64, 0x5f, 0x31, 0x2f, 0x42, 0x69, 0x61, 0x73,
  0x41, 0x64, 0x64, 0x2f, 0x52, 0x65, 0x61, 0x64, 0x56, 0x61, 0x72, 0x69,
  0x61, 0x62, 0x6c, 0x65, 0x4f, 0x70, 0x2f, 0x72, 0x65, 0x73, 0x6f, 0x75,
  0x72, 0x63, 0x65, 0x00, 0x04, 0x00, 0x00, 0x00, 0xff, 0xff, 0xff, 0xff,
  0x15, 0x00, 0x00, 0x00, 0x01, 0x00, 0x00, 0x00, 0x10, 0x00, 0x00, 0x00,
  0xfc, 0xd3, 0xff, 0xff, 0x00, 0x00, 0x0e, 0x00, 0x1a, 0x00, 0x08, 0x00,
  0x0c, 0x00, 0x10, 0x00, 0x07, 0x00, 0x14, 0x00, 0x0e, 0x00, 0x00, 0x00,
  0x00, 0x00, 0x00, 0x05, 0x01, 0x00, 0x00, 0x00, 0x3c, 0x00, 0x00, 0x00,
  0x30, 0x00, 0x00, 0x00, 0x14, 0x00, 0x00, 0x00, 0x00, 0x00, 0x0e, 0x00,
  0x18, 0x00, 0x17, 0x00, 0x10, 0x00, 0x0c, 0x00, 0x08, 0x00, 0x04, 0x00,
  0x0e, 0x00, 0x00, 0x00, 0x03, 0x00, 0x00, 0x00, 0x03, 0x00, 0x00, 0x00,
  0x03, 0x00, 0x00, 0x00, 0x03, 0x00, 0x00, 0x00, 0x00, 0x00, 0x00, 0x01,
  0x01, 0x00, 0x00, 0x00, 0x0b, 0x00, 0x00, 0x00, 0x01, 0x00, 0x00, 0x00,
  0x0a, 0x00, 0x00, 0x00, 0x2c, 0xff, 0xff, 0xff, 0x11, 0x00, 0x00, 0x00,
  0x00, 0x00, 0x00, 0x11, 0x01, 0x00, 0x00, 0x00, 0xcc, 0xd3, 0xff, 0xff,
  0x14, 0x00, 0x00, 0x00, 0x0c, 0x00, 0x00, 0x00, 0x20, 0x00, 0x00, 0x00,
  0x58, 0x00, 0x00, 0x00, 0x40, 0x00, 0x00, 0x00, 0x04, 0x00, 0x00, 0x00,
  0x01, 0x00, 0x00, 0x00, 0x15, 0x00, 0x00, 0x00, 0x01, 0x00, 0x00, 0x00,
  0x08, 0x00, 0x00, 0x00, 0x20, 0x00, 0x00, 0x00, 0x73, 0x65, 0x71, 0x75,
  0x65, 0x6e, 0x74, 0x69, 0x61, 0x6c, 0x2f, 0x6d, 0x61, 0x78, 0x5f, 0x70,
  0x6f, 0x6f, 0x6c, 0x69, 0x6e, 0x67, 0x32, 0x64, 0x2f, 0x4d, 0x61, 0x78,
  0x50, 0x6f, 0x6f, 0x6c, 0x00, 0x00, 0x00, 0x00, 0x04, 0x00, 0x00, 0x00,
  0xff, 0xff, 0xff, 0xff, 0x15, 0x00, 0x00, 0x00, 0x01, 0x00, 0x00, 0x00,
  0x08, 0x00, 0x00, 0x00, 0xd8, 0xd4, 0xff, 0xff, 0x00, 0x00, 0x0e, 0x00,
  0x14, 0x00, 0x00, 0x00, 0x08, 0x00, 0x0c, 0x00, 0x07, 0x00, 0x10, 0x00,
  0x0e, 0x00, 0x00, 0x00, 0x00, 0x00, 0x00, 0x01, 0x30, 0x00, 0x00, 0x00,
  0x24, 0x00, 0x00, 0x00, 0x10, 0x00, 0x00, 0x00, 0x0c, 0x00, 0x10, 0x00,
  0x00, 0x00, 0x04, 0x00, 0x08, 0x00, 0x0f, 0x00, 0x0c, 0x00, 0x00, 0x00,
  0x01, 0x00, 0x00, 0x00, 0x01, 0x00, 0x00, 0x00, 0x00, 0x00, 0x00, 0x01,
  0x01, 0x00, 0x00, 0x00, 0x0a, 0x00, 0x00, 0x00, 0x03, 0x00, 0x00, 0x00,
  0x00, 0x00, 0x00, 0x00, 0x08, 0x00, 0x00, 0x00, 0x01, 0x00, 0x00, 0x00,
  0x0c, 0x00, 0x10, 0x00, 0x0b, 0x00, 0x00, 0x00, 0x0c, 0x00, 0x04, 0x00,
  0x0c, 0x00, 0x00, 0x00, 0x03, 0x00, 0x00, 0x00, 0x00, 0x00, 0x00, 0x03,
  0x01, 0x00, 0x00, 0x00, 0xac, 0xd4, 0xff, 0xff, 0x14, 0x00, 0x00, 0x00,
  0x0b, 0x00, 0x00, 0x00, 0x20, 0x00, 0x00, 0x00, 0xb0, 0x00, 0x00, 0x00,
  0x98, 0x00, 0x00, 0x00, 0x04, 0x00, 0x00, 0x00, 0x01, 0x00, 0x00, 0x00,
  0x40, 0x00, 0x00, 0x00, 0x03, 0x00, 0x00, 0x00, 0x08, 0x00, 0x00, 0x00,
  0x7b, 0x00, 0x00, 0x00, 0x73, 0x65, 0x71, 0x75, 0x65, 0x6e, 0x74, 0x69,
  0x61, 0x6c, 0x2f, 0x63, 0x6f, 0x6e, 0x76, 0x32, 0x64, 0x2f, 0x52, 0x65,
  0x6c, 0x75, 0x3b, 0x73, 0x65, 0x71, 0x75, 0x65, 0x6e, 0x74, 0x69, 0x61,
  0x6c, 0x2f, 0x63, 0x6f, 0x6e, 0x76, 0x32, 0x64, 0x2f, 0x42, 0x69, 0x61,
  0x73, 0x41, 0x64, 0x64, 0x3b, 0x73, 0x65, 0x71, 0x75, 0x65, 0x6e, 0x74,
  0x69, 0x61, 0x6c, 0x2f, 0x63, 0x6f, 0x6e, 0x76, 0x32, 0x64, 0x2f, 0x43,
  0x6f, 0x6e, 0x76, 0x32, 0x44, 0x3b, 0x73, 0x65, 0x71, 0x75, 0x65, 0x6e,
  0x74, 0x69, 0x61, 0x6c, 0x2f, 0x63, 0x6f, 0x6e, 0x76, 0x32, 0x64, 0x2f,
  0x42, 0x69, 0x61, 0x73, 0x41, 0x64, 0x64, 0x2f, 0x52, 0x65, 0x61, 0x64,
  0x56, 0x61, 0x72, 0x69, 0x61, 0x62, 0x6c, 0x65, 0x4f, 0x70, 0x2f, 0x72,
  0x65, 0x73, 0x6f, 0x75, 0x72, 0x63, 0x65, 0x00, 0x04, 0x00, 0x00, 0x00,
  0xff, 0xff, 0xff, 0xff, 0x40, 0x00, 0x00, 0x00, 0x03, 0x00, 0x00, 0x00,
  0x08, 0x00, 0x00, 0x00, 0x00, 0xd5, 0xff, 0xff, 0x0a, 0xd6, 0xff, 0xff,
  0x04, 0x00, 0x00, 0x00, 0x00, 0x08, 0x00, 0x00, 0x90, 0x10, 0x30, 0x3d,
  0x9b, 0xe5, 0xcc, 0xbe, 0x34, 0x9b, 0x03, 0xbe, 0x66, 0x23, 0x8a, 0xbe,
  0x2c, 0xce, 0xf9, 0x3c, 0x0a, 0xae, 0xa2, 0xbe, 0xa6, 0x39, 0x93, 0x3d,
  0x42, 0xcc, 0xcd, 0xbe, 0xae, 0x82, 0x46, 0xbd, 0x1c, 0xc9, 0xfb, 0xbb,
  0x5b, 0xaa, 0x1b, 0xbe, 0xf1, 0x2e, 0x66, 0x3e, 0x89, 0x35, 0xae, 0xbe,
  0xc7, 0x6a, 0x2b, 0x3e, 0x7c, 0xb2, 0x87, 0xbd, 0x02, 0x5a, 0x97, 0x3d,
  0x43, 0xd5, 0x16, 0x3d, 0xf9, 0x93, 0x8f, 0x3e, 0x35, 0x91, 0xbb, 0xbd,
  0xd4, 0x51, 0x11, 0xbe, 0x2b, 0x8c, 0xea, 0xbe, 0x67, 0x9f, 0x49, 0x3e,
  0x74, 0x68, 0x37, 0xbe, 0x44, 0x34, 0xbd, 0x3e, 0xc9, 0x3d, 0xd4, 0xbc,
  0xa7, 0xe9, 0xe6, 0xbc, 0x0b, 0x26, 0x78, 0xbb, 0x9f, 0x22, 0x0f, 0xbe,
  0x18, 0x12, 0xdb, 0xbd, 0xc0, 0xdd, 0xd5, 0x3e, 0x31, 0x21, 0x47, 0xbd,
  0x49, 0xf0, 0xb0, 0xbe, 0x32, 0x33, 0x62, 0x3e, 0xa2, 0xe6, 0x34, 0xbe,
  0xbe, 0x82, 0xd4, 0xbd, 0x0b, 0x41, 0xf7, 0x3c, 0xf7, 0x09, 0xa3, 0xbd,
  0xd8, 0x06, 0xcc, 0xbd, 0x41, 0xa3, 0x41, 0xbd, 0xd8, 0x03, 0xae, 0xbd,
  0xc1, 0x68, 0xf8, 0xbc, 0x30, 0x3c, 0x43, 0xbd, 0x77, 0x9e, 0x7f, 0x3d,
  0xa7, 0xaf, 0xd8, 0x3b, 0xc8, 0x6d, 0x23, 0xbd, 0x37, 0xa4, 0xa8, 0xbc,
  0x11, 0x1c, 0x10, 0x3e, 0x31, 0x64, 0x8a, 0xbc, 0xf4, 0x18, 0xa6, 0xba,
  0x58, 0x0d, 0x4f, 0xbe, 0xf2, 0xb7, 0x4d, 0xbd, 0xc2, 0xbe, 0x82, 0x3e,
  0x61, 0xae, 0x2d, 0xbe, 0x78, 0x53, 0x41, 0xbe, 0xca, 0xc4, 0x3c, 0x3b,
  0x23, 0x25, 0xfe, 0xbd, 0x9c, 0x32, 0x88, 0xbd, 0x06, 0x52, 0xce, 0xbd,
  0x79, 0xbd, 0xc9, 0xbd, 0x34, 0x9c, 0xcd, 0xbc, 0x6d, 0x20, 0x2d, 0xbe,
  0xdc, 0xdb, 0xa7, 0xbd, 0xa2, 0xb6, 0x8d, 0x3e, 0xb5, 0xe6, 0x9b, 0xbb,
  0x6f, 0xee, 0xd4, 0xbc, 0xdf, 0xf1, 0x47, 0x3c, 0x83, 0x64, 0xeb, 0x3b,
  0xd0, 0xb8, 0x7a, 0xbe, 0x17, 0x5b, 0x25, 0xbd, 0x7a, 0xc8, 0xcd, 0xbe,
  0x4a, 0xa6, 0x1b, 0xbd, 0xa9, 0xba, 0x94, 0x3e, 0x19, 0xf0, 0xd4, 0xbd,
  0x1a, 0xab, 0x3d, 0xbd, 0x00, 0xc4, 0xf1, 0xbd, 0x58, 0x6d, 0x6d, 0xbe,
  0x32, 0xc6, 0x74, 0xbe, 0x62, 0xa0, 0x89, 0xbe, 0x00, 0xc3, 0x98, 0xbd,
  0xab, 0x14, 0xa0, 0xbc, 0x98, 0x7c, 0xd4, 0x3b, 0xa1, 0x92, 0x48, 0x3e,
  0x8e, 0xe4, 0x95, 0xbd, 0x04, 0xbf, 0x0c, 0xbe, 0x22, 0x29, 0xb9, 0xbd,
  0x44, 0x87, 0xe1, 0x3d, 0x74, 0xf9, 0xe8, 0xbb, 0x4d, 0x9a, 0xfa, 0xbd,
  0xed, 0x90, 0x4a, 0x3d, 0x0c, 0x3c, 0x5b, 0x3e, 0x7c, 0x01, 0x90, 0x3c,
  0x9f, 0x1e, 0x84, 0x3e, 0x25, 0x79, 0x43, 0x3d, 0xe0, 0x6e, 0xd8, 0x3e,
  0x08, 0x81, 0xcf, 0x3d, 0xb8, 0x0b, 0x01, 0xbd, 0xb8, 0x0b, 0x47, 0xbd,
  0xba, 0x8e, 0xdc, 0xbe, 0x04, 0x1a, 0x8e, 0x3d, 0x05, 0x03, 0x24, 0xbe,
  0xcd, 0x67, 0x2d, 0x3e, 0x50, 0x4d, 0x10, 0xbe, 0x66, 0x4b, 0x86, 0xbd,
  0x50, 0x8d, 0xaf, 0xbe, 0xf4, 0x2a, 0x3b, 0xbc, 0xa1, 0xdb, 0x44, 0x3e,
  0x83, 0x06, 0x1d, 0x3e, 0x45, 0x9f, 0x39, 0xbe, 0xd4, 0x9a, 0x77, 0x3e,
  0x3a, 0x0f, 0x70, 0xbe, 0xc7, 0xd0, 0x86, 0xbd, 0x2f, 0xc4, 0x15, 0xbe,
  0xea, 0xcc, 0x4b, 0x3d, 0x12, 0xe0, 0xe1, 0xbe, 0x4e, 0xb6, 0xc7, 0xbd,
  0xd4, 0x67, 0x2f, 0x3e, 0xed, 0x77, 0x5b, 0x3d, 0x09, 0xf6, 0x86, 0xbe,
  0x0b, 0xbc, 0x29, 0xbe, 0x54, 0x4f, 0x93, 0xbe, 0x52, 0x9e, 0xe8, 0x3b,
  0xac, 0x24, 0xda, 0x3d, 0xc4, 0x03, 0x4f, 0xbc, 0x62, 0x20, 0x26, 0xbe,
  0xe6, 0x66, 0xee, 0x3c, 0x24, 0xa9, 0x7d, 0xbe, 0x28, 0x38, 0x82, 0xbe,
  0xd1, 0xb5, 0xcd, 0x3c, 0xd9, 0x54, 0x2d, 0x3e, 0x08, 0x70, 0x84, 0x3e,
  0x4a, 0x08, 0x86, 0xbe, 0xc6, 0xb5, 0xe1, 0xbd, 0x8d, 0xc9, 0x4a, 0xbe,
  0xca, 0xab, 0x26, 0xbf, 0xeb, 0x99, 0x04, 0xbe, 0x81, 0xf4, 0x91, 0x3e,
  0x25, 0x36, 0x83, 0xbe, 0x60, 0x45, 0x67, 0x3e, 0x81, 0x65, 0x38, 0xbf,
  0x05, 0xf9, 0x43, 0xbe, 0x35, 0x59, 0x87, 0xbf, 0x22, 0xc6, 0xc6, 0x3d,
  0x41, 0xc7, 0x9b, 0xbe, 0x5c, 0x74, 0x36, 0x3e, 0x89, 0x7b, 0xcf, 0xbd,
  0xca, 0x3c, 0x90, 0xbc, 0x0e, 0x71, 0x46, 0xbe, 0x9d, 0x10, 0x85, 0x3c,
  0x9b, 0x4a, 0x3e, 0x3e, 0xdb, 0xec, 0x63, 0x3e, 0xf4, 0x06, 0x8c, 0x3d,
  0x7f, 0xe3, 0x3c, 0xbd, 0x1e, 0x41, 0x73, 0xbd, 0xae, 0xb0, 0x63, 0xbe,
  0x5c, 0x4e, 0x02, 0x3e, 0xe4, 0xf3, 0x34, 0x3d, 0x0c, 0xeb, 0xd0, 0x3d,
  0x66, 0x32, 0xcc, 0x3c, 0x72, 0xd0, 0xdf, 0x3c, 0x53, 0xf4, 0xae, 0x3b,
  0xb6, 0x44, 0x09, 0x3d, 0x47, 0x7f, 0x9a, 0xbe, 0x8a, 0x5a, 0x93, 0xbe,
  0xd6, 0x8f, 0x8e, 0xbd, 0xf3, 0xb3, 0x16, 0xbe, 0xd2, 0xe7, 0xe3, 0xbe,
  0xb1, 0xdd, 0xa9, 0x3d, 0xc3, 0x91, 0x94, 0xbe, 0xc8, 0x46, 0x1e, 0xbd,
  0xf5, 0xac, 0x45, 0xbd, 0x9b, 0xe5, 0x07, 0xbf, 0xa3, 0x0e, 0x49, 0xbe,
  0x45, 0x8f, 0xb6, 0xbe, 0x70, 0xa4, 0x5a, 0xbe, 0x55, 0x1f, 0x7e, 0xbd,
  0xc7, 0x4a, 0x1c, 0x3f, 0x10, 0x49, 0xcf, 0xbc, 0xf1, 0x38, 0xbc, 0x3e,
  0x9e, 0xda, 0x7f, 0xbe, 0xda, 0x05, 0x65, 0xbe, 0x43, 0x82, 0x38, 0xbe,
  0xce, 0x05, 0x1a, 0x3e, 0x39, 0x82, 0x92, 0xbd, 0x4e, 0x2c, 0x2c, 0x3e,
  0xed, 0xfc, 0xc9, 0xbd, 0xd8, 0x72, 0x30, 0xbe, 0xf7, 0x81, 0x1e, 0x3c,
  0x15, 0xb5, 0x1b, 0xbe, 0x0e, 0xb9, 0x63, 0x3e, 0xd5, 0x63, 0x93, 0xbd,
  0x7f, 0xc0, 0x89, 0x3e, 0x7a, 0x29, 0x2a, 0x3c, 0x33, 0x43, 0x71, 0x3e,
  0x5b, 0xc7, 0x27, 0x3c, 0xfd, 0xbe, 0xbb, 0xbd, 0x79, 0xcd, 0x9a, 0x3d,
  0xf3, 0xcc, 0x63, 0x3d, 0x73, 0xcf, 0xd3, 0x3c, 0xe5, 0xc7, 0x2d, 0xbe,
  0x71, 0xd6, 0x46, 0x3e, 0x09, 0xd3, 0x6b, 0xbd, 0x22, 0x3e, 0xe0, 0xbd,
  0xac, 0xb2, 0xa6, 0xbd, 0x80, 0x7a, 0xf8, 0x3c, 0x50, 0x1c, 0x33, 0x3c,
  0x6e, 0x2e, 0x5c, 0xbc, 0xf2, 0xa0, 0x59, 0xbe, 0xe0, 0x4a, 0x8a, 0xbe,
  0x3d, 0xe5, 0x89, 0x3e, 0x23, 0x69, 0x01, 0xbe, 0xd8, 0x98, 0xf3, 0xbc,
  0x00, 0x0d, 0xd7, 0x3d, 0xef, 0x86, 0xec, 0x3d, 0x73, 0x00, 0x05, 0xbe,
  0xb7, 0xa5, 0x5c, 0xbe, 0x09, 0x28, 0x86, 0xbd, 0xc5, 0xef, 0xec, 0xbd,
  0x7c, 0xdd, 0x28, 0xbe, 0xdc, 0x60, 0x9c, 0xbd, 0x75, 0xce, 0x17, 0x3e,
  0x03, 0x2b, 0x81, 0xbb, 0xaa, 0x44, 0x23, 0xbe, 0xc2, 0x6f, 0x04, 0xbe,
  0x17, 0x74, 0xae, 0xbd, 0xe8, 0x84, 0x3e, 0xbe, 0x48, 0x9e, 0x20, 0x3e,
  0x5c, 0xa4, 0xae, 0xbd, 0x57, 0xab, 0x99, 0xbe, 0xc9, 0xb2, 0x04, 0x3e,
  0x68, 0x18, 0x80, 0xbe, 0xf7, 0x1e, 0x07, 0xbf, 0x41, 0x70, 0x0e, 0x3e,
  0x93, 0x7a, 0x22, 0xbf, 0x72, 0xc8, 0x5c, 0x3e, 0xc4, 0xd2, 0x21, 0xbd,
  0x50, 0x99, 0x86, 0x3d, 0xf0, 0x51, 0xd5, 0x3d, 0x0e, 0x47, 0x90, 0x3c,
  0x5c, 0xef, 0xef, 0xbe, 0x46, 0x45, 0xd9, 0xbc, 0x96, 0x18, 0x25, 0x3d,
  0x96, 0x2d, 0x25, 0xbf, 0x3e, 0x37, 0x14, 0x3c, 0x31, 0x20, 0xa7, 0x3e,
  0xff, 0xe0, 0x52, 0xbe, 0xac, 0xdd, 0xa7, 0x3d, 0x64, 0x24, 0xac, 0xbe,
  0x5c, 0xdf, 0x5d, 0xbe, 0x97, 0x41, 0xec, 0x3d, 0x98, 0x06, 0xa5, 0x3d,
  0x00, 0x6f, 0xce, 0xbc, 0x1a, 0x19, 0x10, 0xbd, 0x10, 0x0b, 0xf8, 0xbd,
  0x7c, 0x50, 0x39, 0x3e, 0x50, 0xd9, 0xcc, 0xbd, 0x57, 0xff, 0xbe, 0xbe,
  0x47, 0x75, 0x72, 0xbd, 0x90, 0x00, 0x67, 0x3e, 0x2c, 0xd3, 0x38, 0x3d,
  0x23, 0xb1, 0x5e, 0x3d, 0xb1, 0xe2, 0xd3, 0x3e, 0x75, 0xf6, 0xa0, 0xbe,
  0x73, 0x63, 0xe0, 0xbc, 0x0d, 0x28, 0x12, 0x3f, 0xba, 0x0e, 0x9f, 0xbd,
  0x26, 0x6b, 0xa8, 0x3c, 0x1c, 0xbc, 0x90, 0xbd, 0x38, 0xdb, 0xff, 0xbd,
  0x1e, 0x7d, 0x17, 0xbe, 0x0a, 0xbb, 0x18, 0xbf, 0xf7, 0x94, 0x95, 0xbd,
  0x04, 0xcd, 0xd4, 0xbd, 0xbc, 0x3d, 0x23, 0xbd, 0x53, 0x4c, 0xef, 0x3d,
  0x11, 0x96, 0x6a, 0xbd, 0xd6, 0xdb, 0x65, 0xbe, 0xa1, 0x73, 0x23, 0xbe,
  0xcd, 0x35, 0xb1, 0xbe, 0xa4, 0x4a, 0xe3, 0x3c, 0x41, 0x2f, 0x03, 0x3e,
  0x39, 0x99, 0x0a, 0x3e, 0x5d, 0xc6, 0xd8, 0xbd, 0x0a, 0x39, 0x06, 0xbe,
  0xca, 0x0d, 0x3a, 0xbe, 0x29, 0x9e, 0x59, 0xbe, 0xf9, 0x5d, 0x58, 0xbe,
  0x60, 0x47, 0x77, 0x3d, 0x78, 0x41, 0x9e, 0xbd, 0x55, 0x86, 0x43, 0xbd,
  0x18, 0x3c, 0x10, 0x3c, 0x80, 0x15, 0xab, 0xbd, 0x39, 0x4e, 0x85, 0xbd,
  0xe7, 0xda, 0x35, 0xbe, 0xa0, 0x78, 0x88, 0xbe, 0x1f, 0x39, 0x8f, 0xbd,
  0xde, 0xab, 0xc0, 0x3e, 0xf6, 0x0c, 0x06, 0xbe, 0xc1, 0x34, 0xa2, 0x3d,
  0xf6, 0x93, 0x99, 0xbd, 0xdf, 0x6f, 0x10, 0x3d, 0x80, 0x58, 0x13, 0xbe,
  0x0a, 0x6a, 0xaa, 0xbd, 0x6e, 0x14, 0x42, 0xbd, 0x40, 0x4f, 0x0b, 0x3d,
  0xd0, 0xa0, 0x8e, 0xbd, 0x40, 0x5e, 0x02, 0x3f, 0x79, 0x7f, 0x2c, 0xbd,
  0x76, 0xd5, 0x84, 0x3e, 0xbf, 0x20, 0x44, 0xbc, 0x33, 0x66, 0xd8, 0x3e,
  0xe4, 0x05, 0x62, 0xbd, 0xb2, 0x57, 0x3a, 0x3e, 0x62, 0x68, 0xd0, 0xbc,
  0xf9, 0x70, 0x16, 0x3e, 0xc7, 0x76, 0x90, 0xbc, 0xa9, 0xf2, 0x33, 0xbc,
  0x90, 0x6b, 0xf1, 0xbc, 0x89, 0xc3, 0x43, 0xbe, 0x4f, 0x44, 0x2d, 0xbc,
  0x57, 0xc3, 0xdc, 0x3e, 0x39, 0xd0, 0x38, 0xbe, 0x70, 0x0b, 0x24, 0xbe,
  0x6b, 0xb7, 0x39, 0x3e, 0xf5, 0x94, 0x70, 0xbd, 0xaf, 0x3d, 0xc0, 0xbd,
  0x41, 0x01, 0x49, 0x3e, 0x2f, 0xb7, 0x71, 0xbe, 0x63, 0xe1, 0xe8, 0x3e,
  0x47, 0x56, 0x86, 0xbe, 0x27, 0xdc, 0xa4, 0x3e, 0xf5, 0xc3, 0xd8, 0xbb,
  0x84, 0x0b, 0x6e, 0x3e, 0x0b, 0xe2, 0x23, 0xbe, 0x1f, 0xa7, 0x68, 0xbd,
  0xf0, 0x8a, 0xa8, 0xbe, 0x2c, 0xf4, 0x84, 0x3d, 0xe3, 0x06, 0x85, 0xbe,
  0xc6, 0xb6, 0x10, 0x3d, 0xb3, 0xe5, 0x25, 0xbc, 0x6e, 0x8e, 0xea, 0x3c,
  0xda, 0x8e, 0x6b, 0xbd, 0x56, 0xcb, 0xdc, 0x3d, 0x9d, 0x29, 0x1e, 0xbe,
  0x1f, 0xf6, 0x85, 0x3e, 0xf3, 0xa5, 0x82, 0xbe, 0xd9, 0x41, 0x9f, 0x3e,
  0x18, 0xf1, 0x10, 0x3d, 0x71, 0xe8, 0x24, 0x3e, 0x65, 0xa5, 0xe4, 0xbd,
  0xe6, 0x1b, 0x9f, 0x3b, 0x1e, 0xf8, 0x10, 0xbe, 0x4b, 0x71, 0x85, 0x3e,
  0x57, 0xb5, 0xde, 0xbd, 0x5c, 0xde, 0x3c, 0x3d, 0xe3, 0xb8, 0x1c, 0x3e,
  0xd9, 0x38, 0x4c, 0xbe, 0x4a, 0x37, 0xd1, 0x3e, 0xce, 0xd4, 0x04, 0xbe,
  0xc0, 0xa0, 0xa5, 0xbd, 0x4b, 0xef, 0xd4, 0x3e, 0x57, 0xd3, 0x4b, 0xbe,
  0xb7, 0xe6, 0x55, 0x3d, 0xb8, 0xbe, 0xd1, 0x3b, 0xf2, 0x59, 0xc5, 0xbe,
  0x74, 0x66, 0x44, 0xbd, 0xfd, 0x6f, 0xbc, 0xbe, 0xeb, 0xd1, 0x0d, 0xbf,
  0x73, 0x5c, 0x4c, 0x3d, 0xaa, 0x27, 0x8c, 0xbe, 0x66, 0x46, 0x2c, 0x3e,
  0x9f, 0x6b, 0x11, 0xbd, 0x85, 0x87, 0x82, 0xbe, 0x9c, 0x37, 0xc2, 0x3d,
  0x9a, 0xf1, 0xbc, 0x3d, 0xc5, 0x30, 0xb0, 0xbf, 0xa6, 0x15, 0xc7, 0x3e,
  0xb1, 0x7c, 0xb6, 0xbe, 0x95, 0x55, 0x4e, 0x3e, 0x18, 0xd8, 0x93, 0xbd,
  0x5c, 0x2d, 0xd2, 0x3d, 0xf0, 0x45, 0x26, 0xbe, 0x5f, 0x1a, 0x59, 0xbe,
  0x55, 0x1e, 0x8a, 0xbf, 0x33, 0xd6, 0x47, 0xbd, 0xf4, 0x68, 0x34, 0xbe,
  0xad, 0x2d, 0x53, 0xbe, 0x72, 0xa3, 0x9b, 0x3d, 0x35, 0xf9, 0xa9, 0x3d,
  0x0a, 0x64, 0x06, 0x3e, 0x36, 0x8d, 0x9e, 0xbd, 0xdd, 0x27, 0xe5, 0x3d,
  0xf4, 0xc1, 0x7e, 0xbb, 0xf5, 0x10, 0x30, 0xbe, 0x23, 0xff, 0x15, 0xbe,
  0x2c, 0x92, 0x93, 0x3d, 0xec, 0x7c, 0x79, 0x3c, 0x3c, 0x28, 0x61, 0xbd,
  0x4e, 0xc6, 0xb0, 0xbe, 0x96, 0x8a, 0x9a, 0x3e, 0xa3, 0x2e, 0x3b, 0xbd,
  0x7d, 0xa1, 0x02, 0x3e, 0x22, 0x2a, 0x0a, 0xbe, 0x1c, 0x67, 0x95, 0xbd,
  0x7c, 0x06, 0x47, 0x3e, 0x77, 0xb9, 0x5b, 0x3d, 0xd9, 0xcd, 0xb5, 0xbe,
  0xfc, 0xb1, 0x86, 0xbe, 0x1a, 0x04, 0x5d, 0xbd, 0x03, 0x75, 0xaa, 0xbe,
  0xac, 0x98, 0x94, 0xbe, 0x9c, 0x02, 0xb0, 0xbe, 0x35, 0x6c, 0x55, 0xbd,
  0x98, 0x76, 0xad, 0xbe, 0xd1, 0x57, 0xac, 0xbe, 0xb4, 0xd4, 0x53, 0xbe,
  0x31, 0x7b, 0x76, 0x3d, 0x26, 0x08, 0x25, 0xbf, 0xf0, 0xdc, 0x2b, 0xbe,
  0x72, 0x0b, 0x81, 0xbd, 0x9a, 0x12, 0xf9, 0x3b, 0x3e, 0x78, 0xb9, 0x3e,
  0xeb, 0x75, 0x23, 0xbe, 0xeb, 0x08, 0x0f, 0xbf, 0xf1, 0x96, 0xda, 0x3d,
  0xba, 0xff, 0x23, 0xbf, 0xf2, 0x44, 0xf1, 0x3c, 0xff, 0x76, 0xc4, 0xbc,
  0x0d, 0x9a, 0x7a, 0x3d, 0x06, 0xef, 0x61, 0xbd, 0x88, 0x31, 0x3f, 0x3e,
  0x6d, 0x67, 0xa8, 0xbe, 0x9e, 0x5b, 0x05, 0xbe, 0x84, 0x0a, 0x22, 0xbf,
  0x8b, 0x0b, 0x7a, 0x3e, 0xa1, 0x7f, 0x54, 0xbd, 0xc6, 0x95, 0x27, 0x3c,
  0x5d, 0x1e, 0xf1, 0xbc, 0x74, 0xb5, 0x8e, 0xbc, 0x66, 0xc7, 0x6d, 0xbf,
  0x7c, 0x89, 0x95, 0x3e, 0x9d, 0x57, 0x8e, 0xbe, 0xaf, 0xe2, 0xdb, 0x3e,
  0x70, 0x24, 0x0c, 0xbe, 0xe2, 0xe4, 0xde, 0x3d, 0x6d, 0x1c, 0x86, 0xbe,
  0xf3, 0xc0, 0x8b, 0x3a, 0x6a, 0x00, 0x7e, 0xbf, 0x0d, 0x6a, 0x4d, 0x3e,
  0x74, 0xc8, 0xd5, 0xbd, 0x4f, 0xaa, 0x0b, 0x3d, 0x28, 0xb8, 0x02, 0xbd,
  0xab, 0xf7, 0x47, 0x3f, 0x5c, 0x26, 0x8f, 0x3d, 0xfc, 0xe1, 0x00, 0x3e,
  0x84, 0x7b, 0x3e, 0xbd, 0x68, 0x96, 0x2e, 0xbd, 0x90, 0x78, 0x81, 0xbd,
  0x53, 0x88, 0x66, 0xbd, 0x5e, 0xa0, 0x2a, 0xbb, 0x80, 0xb2, 0x35, 0xbd,
  0x5c, 0xb4, 0xec, 0xbc, 0xb1, 0x46, 0xdc, 0x3b, 0xda, 0x7f, 0x88, 0xbd,
  0x38, 0xed, 0xba, 0xbb, 0x53, 0x1d, 0x95, 0xba, 0x66, 0xcb, 0x96, 0xbc,
  0x50, 0xde, 0x6a, 0x3b, 0x97, 0xe8, 0x0f, 0xbe, 0x34, 0x5d, 0xa1, 0xb8,
  0xa4, 0xc1, 0x29, 0xbd, 0x2f, 0x44, 0xae, 0xbd, 0xe4, 0xb6, 0x9a, 0x3d,
  0xce, 0x98, 0x27, 0xbd, 0xca, 0x9e, 0x8c, 0x3d, 0x5b, 0xac, 0xce, 0x3a,
  0xc5, 0xc0, 0x0d, 0xbe, 0x00, 0x31, 0x13, 0xbd, 0xb8, 0xc6, 0x60, 0xbc,
  0x23, 0x6f, 0xbb, 0xbd, 0x80, 0xe3, 0x08, 0x3e, 0x33, 0xb0, 0x90, 0xbd,
  0xa6, 0xff, 0xcc, 0x3d, 0xaa, 0x59, 0x41, 0x3c, 0xc0, 0x14, 0x84, 0xbe,
  0x5d, 0xa6, 0xcc, 0x3e, 0x97, 0x9d, 0x91, 0x3d, 0x33, 0x03, 0x37, 0xbe,
  0xfa, 0x95, 0x82, 0x3d, 0x34, 0xd6, 0x31, 0xbf, 0x25, 0x81, 0x02, 0x3e,
  0x20, 0x09, 0xe5, 0x3b, 0xad, 0x4b, 0x82, 0xbe, 0x28, 0x4e, 0x2e, 0x3d,
  0xa2, 0x57, 0x44, 0xbf, 0xc4, 0xba, 0x62, 0xbf, 0xa9, 0x33, 0x50, 0x3e,
  0xe6, 0x11, 0x8e, 0xbe, 0x8f, 0xb4, 0x52, 0x3d, 0x69, 0x05, 0x9b, 0xbd,
  0x09, 0x82, 0x82, 0x3e, 0x7e, 0x54, 0xcd, 0xbe, 0xcf, 0xef, 0x9c, 0x3d,
  0x4a, 0xa2, 0xcb, 0xbf, 0x08, 0xf4, 0xa7, 0x3e, 0xbe, 0x77, 0xe2, 0x3d,
  0xba, 0x54, 0x31, 0xbe, 0xf7, 0xca, 0x03, 0xbe, 0xc1, 0x36, 0x21, 0x3e,
  0x29, 0xf5, 0x28, 0xbe, 0xcf, 0xe0, 0x21, 0x3e, 0x21, 0xdc, 0xfd, 0xbd,
  0x99, 0x71, 0xc3, 0xbe, 0xe2, 0xdd, 0xff, 0xff, 0x10, 0x00, 0x00, 0x00,
  0x0a, 0x00, 0x00, 0x00, 0x1c, 0x00, 0x00, 0x00, 0x38, 0x00, 0x00, 0x00,
  0x04, 0x00, 0x00, 0x00, 0x10, 0x00, 0x00, 0x00, 0x04, 0x00, 0x00, 0x00,
  0x01, 0x00, 0x00, 0x00, 0x08, 0x00, 0x00, 0x00, 0x1a, 0x00, 0x00, 0x00,
  0x73, 0x65, 0x71, 0x75, 0x65, 0x6e, 0x74, 0x69, 0x61, 0x6c, 0x2f, 0x63,
  0x6f, 0x6e, 0x76, 0x32, 0x64, 0x5f, 0x31, 0x2f, 0x43, 0x6f, 0x6e, 0x76,
  0x32, 0x44, 0x00, 0x00, 0x58, 0xdd, 0xff, 0xff, 0x62, 0xde, 0xff, 0xff,
  0x04, 0x00, 0x00, 0x00, 0x80, 0x01, 0x00, 0x00, 0x4b, 0x75, 0x51, 0x3e,
  0xf5, 0x52, 0x7b, 0xbe, 0xd0, 0x4b, 0x27, 0x3d, 0xdf, 0x38, 0xda, 0x3b,
  0xe6, 0x57, 0x18, 0xbe, 0xd7, 0x6c, 0xa9, 0xb9, 0xf9, 0x45, 0x0c, 0x3e,
  0x7e, 0xcf, 0xdc, 0xbd, 0x4f, 0xee, 0x31, 0x3d, 0xf5, 0x46, 0x33, 0x3e,
  0xd2, 0xdf, 0x91, 0xbd, 0xa7, 0x50, 0xe8, 0xbd, 0xd7, 0x3b, 0x09, 0x3e,
  0x34, 0x44, 0x8f, 0xbe, 0xa5, 0xc4, 0x4f, 0xbe, 0x31, 0x61, 0x96, 0x3e,
  0x92, 0xd7, 0x39, 0xbe, 0xd2, 0x6b, 0x8a, 0xbd, 0x66, 0x50, 0xa0, 0xbe,
  0x4f, 0x37, 0x59, 0x3e, 0xe8, 0x4e, 0xce, 0x3d, 0x17, 0x83, 0x0a, 0xbe,
  0xf5, 0xe9, 0x62, 0x3e, 0xd1, 0xcf, 0x17, 0x3e, 0xfc, 0x46, 0x33, 0xbe,
  0x12, 0x16, 0x4e, 0xbe, 0x3c, 0x6c, 0x3a, 0x3e, 0x6e, 0x5f, 0xd8, 0xbd,
  0xb5, 0xf8, 0x0b, 0x3e, 0x62, 0xe3, 0x85, 0xbc, 0x6a, 0x7c, 0x02, 0x3d,
  0xaf, 0xf2, 0xb3, 0xbd, 0xe7, 0xe4, 0xd7, 0x3b, 0x7f, 0x03, 0x20, 0xbd,
  0xa5, 0x8f, 0xe7, 0xbc, 0x7f, 0x29, 0x06, 0x3d, 0x30, 0xe6, 0x2b, 0xbd,
  0xbc, 0xc2, 0x43, 0x3d, 0xde, 0xb6, 0xe0, 0xbd, 0x35, 0x54, 0x0a, 0x3e,
  0x04, 0x97, 0xa6, 0x3e, 0x13, 0xf7, 0xdb, 0xbe, 0xcd, 0x00, 0x7f, 0xbc,
  0xce, 0xb5, 0x9a, 0xbe, 0xc6, 0x3e, 0x0a, 0x3e, 0x7f, 0x62, 0x46, 0x3d,
  0xbc, 0x12, 0x2f, 0xbe, 0x9c, 0x31, 0x12, 0x3e, 0xab, 0x90, 0x9a, 0xbd,
  0xd7, 0xbf, 0x4a, 0xbe, 0x08, 0xf6, 0x59, 0xbc, 0x81, 0x5c, 0xad, 0xbb,
  0xd8, 0x8f, 0xe4, 0xbd, 0x24, 0x58, 0x80, 0xbd, 0xa0, 0x74, 0x42, 0xbd,
  0xda, 0xbc, 0x28, 0xbb, 0x5b, 0x43, 0x08, 0x3e, 0xa4, 0x24, 0xa1, 0xbd,
  0xee, 0xd8, 0x08, 0x3d, 0x37, 0xf6, 0x6b, 0xbd, 0xb5, 0x1d, 0xec, 0x3d,
  0xd4, 0xfb, 0x83, 0x3e, 0x81, 0x49, 0x9a, 0x3e, 0xaa, 0xd7, 0x22, 0xbd,
  0xc9, 0x67, 0xae, 0xbb, 0x3d, 0xb2, 0xb6, 0xbd, 0xe2, 0x43, 0xaa, 0xbd,
  0x7c, 0x0c, 0x84, 0xbe, 0x9b, 0x11, 0x4e, 0xbe, 0x43, 0xce, 0x42, 0x3c,
  0x55, 0x20, 0x06, 0xbd, 0x6e, 0xb3, 0x0e, 0xbd, 0x5b, 0xcc, 0x8a, 0xbc,
  0x83, 0x0e, 0xc5, 0xbd, 0x05, 0xdf, 0x37, 0xbe, 0xe0, 0x01, 0x86, 0xbd,
  0x8d, 0xca, 0x2c, 0xbe, 0x79, 0x83, 0xfb, 0xbd, 0xf5, 0x25, 0xc2, 0x3c,
  0xce, 0x29, 0xcc, 0x3d, 0xef, 0x48, 0xd8, 0xbd, 0x8a, 0xc5, 0xa3, 0x3b,
  0x9e, 0x14, 0xec, 0x3d, 0x58, 0xe9, 0x95, 0xbe, 0xdd, 0x78, 0x43, 0xbe,
  0xa4, 0x12, 0x7e, 0x3d, 0x7c, 0x05, 0xf4, 0x3d, 0xd7, 0xea, 0x03, 0xbf,
  0xee, 0x69, 0xbb, 0xbe, 0xf2, 0x1a, 0xbf, 0xbc, 0xe2, 0xbd, 0xd7, 0x3e,
  0xe3, 0x80, 0x0b, 0x3e, 0xe9, 0xe8, 0xcd, 0xbd, 0x2e, 0xaa, 0x52, 0x3e,
  0x4e, 0xb5, 0x21, 0x3e, 0xd8, 0xda, 0x53, 0x3b, 0xba, 0xdf, 0xff, 0xff,
  0x10, 0x00, 0x00, 0x00, 0x09, 0x00, 0x00, 0x00, 0x1c, 0x00, 0x00, 0x00,
  0x38, 0x00, 0x00, 0x00, 0x04, 0x00, 0x00, 0x00, 0x08, 0x00, 0x00, 0x00,
  0x04, 0x00, 0x00, 0x00, 0x03, 0x00, 0x00, 0x00, 0x01, 0x00, 0x00, 0x00,
  0x18, 0x00, 0x00, 0x00, 0x73, 0x65, 0x71, 0x75, 0x65, 0x6e, 0x74, 0x69,
  0x61, 0x6c, 0x2f, 0x63, 0x6f, 0x6e, 0x76, 0x32, 0x64, 0x2f, 0x43, 0x6f,
  0x6e, 0x76, 0x32, 0x44, 0x00, 0x00, 0x00, 0x00, 0x30, 0xdf, 0xff, 0xff,
  0x3a, 0xe0, 0xff, 0xff, 0x04, 0x00, 0x00, 0x00, 0x00, 0x01, 0x00, 0x00,
  0x0b, 0xbf, 0x80, 0x3e, 0x22, 0xa3, 0x9a, 0x3d, 0x54, 0x0f, 0x1a, 0xbd,
  0xba, 0x08, 0x10, 0xbd, 0xf9, 0xe7, 0x43, 0xbd, 0x02, 0xf9, 0x1d, 0x3d,
  0x1d, 0x09, 0x88, 0x3c, 0xf7, 0xe0, 0xb1, 0x3d, 0x50, 0x82, 0x36, 0xbe,
  0xb2, 0x47, 0x98, 0x3d, 0xb3, 0xe1, 0x62, 0x3d, 0x9c, 0x04, 0xda, 0x3d,
  0x2c, 0xdc, 0x34, 0x3d, 0x4e, 0xab, 0x82, 0xbd, 0x51, 0x07, 0x69, 0x3e,
  0xe2, 0x14, 0xdc, 0x3d, 0x17, 0x6a, 0x08, 0x3c, 0x1b, 0x5c, 0x4b, 0x3d,
  0x16, 0x51, 0xba, 0x3c, 0x9f, 0x98, 0x5e, 0xbd, 0xf5, 0x9d, 0x98, 0xbd,
  0xba, 0x19, 0xb4, 0xbc, 0x5b, 0x7b, 0xfd, 0xbd, 0x73, 0xe3, 0x13, 0xbd,
  0x2c, 0xc5, 0x37, 0xbf, 0x05, 0xb1, 0x6c, 0x3e, 0x3f, 0x28, 0x09, 0x3e,
  0x86, 0xe9, 0x85, 0x3e, 0x76, 0x7e, 0xed, 0x3d, 0xe6, 0x3b, 0x26, 0xbd,
  0xed, 0x81, 0x7d, 0x3e, 0x51, 0x18, 0x0d, 0x3e, 0xc4, 0xf7, 0x1a, 0x3e,
  0xad, 0x52, 0x07, 0x3e, 0x0c, 0x42, 0xac, 0x3c, 0x29, 0x9e, 0x85, 0xbe,
  0xf4, 0x61, 0x57, 0xbd, 0xca, 0x75, 0x03, 0xbc, 0x94, 0xf0, 0x5f, 0xbe,
  0x28, 0xef, 0x91, 0x3d, 0xf4, 0xd1, 0xd7, 0xbe, 0x94, 0x91, 0x87, 0x3e,
  0xee, 0xf5, 0x1a, 0x3e, 0x40, 0xbd, 0x5e, 0x3e, 0xff, 0x1c, 0x87, 0x3d,
  0x40, 0xec, 0x3c, 0xbd, 0x8c, 0x3a, 0x9e, 0x3e, 0xde, 0x90, 0x0b, 0x3e,
  0x77, 0xe6, 0x35, 0x3e, 0x62, 0x17, 0x50, 0xbf, 0x7f, 0xa0, 0x69, 0x3d,
  0x29, 0xf5, 0x51, 0x3c, 0x80, 0xd2, 0x11, 0x3d, 0xe5, 0xfe, 0xbc, 0xbc,
  0xe5, 0x16, 0xc5, 0x3d, 0xdb, 0x01, 0x2a, 0x3d, 0x4e, 0xe0, 0x14, 0xbe,
  0x9c, 0x19, 0x88, 0x3e, 0x64, 0x1b, 0x52, 0x3c, 0xef, 0x8e, 0x47, 0x3e,
  0x68, 0x2b, 0x3d, 0x3d, 0x00, 0x69, 0x82, 0x3c, 0x6a, 0xc3, 0x70, 0x3e,
  0x65, 0x18, 0x33, 0x3e, 0x12, 0xe1, 0xff, 0xff, 0x10, 0x00, 0x00, 0x00,
  0x08, 0x00, 0x00, 0x00, 0x14, 0x00, 0x00, 0x00, 0x30, 0x00, 0x00, 0x00,
  0x02, 0x00, 0x00, 0x00, 0x04, 0x00, 0x00, 0x00, 0x10, 0x00, 0x00, 0x00,
  0x19, 0x00, 0x00, 0x00, 0x73, 0x65, 0x71, 0x75, 0x65, 0x6e, 0x74, 0x69,
  0x61, 0x6c, 0x2f, 0x64, 0x65, 0x6e, 0x73, 0x65, 0x5f, 0x31, 0x2f, 0x4d,
  0x61, 0x74, 0x4d, 0x75, 0x6c, 0x00, 0x00, 0x00, 0x80, 0xe0, 0xff, 0xff,
  0x8a, 0xe1, 0xff, 0xff, 0x04, 0x00, 0x00, 0x00, 0x00, 0x1c, 0x00, 0x00,
  0xc0, 0x59, 0xb7, 0xbd, 0xaf, 0xb3, 0x62, 0xbf, 0xae, 0x4c, 0xc2, 0xbc,
  0x30, 0x5c, 0x1d, 0x3e, 0x95, 0x3f, 0xf5, 0x3d, 0xef, 0x17, 0x44, 0x3d,
  0xe6, 0xc2, 0x26, 0xbf, 0xed, 0x7a, 0xde, 0x3d, 0x5a, 0x8e, 0x13, 0xbe,
  0x0d, 0xea, 0x3f, 0xbe, 0xbc, 0x08, 0x86, 0xbd, 0x07, 0x9a, 0x9d, 0xbe,
  0xcc, 0xfb, 0xf3, 0x3d, 0x36, 0x4e, 0xf8, 0x3e, 0x14, 0xd2, 0x4b, 0xbe,
  0x78, 0x14, 0x55, 0x3e, 0xaf, 0x00, 0x99, 0x3e, 0x1d, 0x8d, 0x67, 0xbf,
  0x91, 0x45, 0x13, 0x3d, 0x9a, 0xd5, 0xdb, 0x3c, 0xd5, 0x61, 0xc6, 0x3e,
  0x55, 0xa1, 0x91, 0x3e, 0x4e, 0x94, 0x3d, 0xbf, 0x10, 0x2b, 0xec, 0x3e,
  0x74, 0xe6, 0x10, 0xbe, 0xd7, 0xfe, 0x54, 0xbd, 0x00, 0xd4, 0xbc, 0xbb,
  0x2f, 0xed, 0xae, 0xbd, 0xb8, 0xc9, 0x47, 0xbd, 0xf2, 0x4f, 0xc2, 0x3e,
  0x02, 0x5e, 0xcf, 0x3d, 0x8f, 0x88, 0x39, 0x3e, 0x3a, 0x4d, 0xb5, 0x3c,
  0x4f, 0xfa, 0x3d, 0xbf, 0x80, 0x8a, 0x0c, 0x3d, 0xa9, 0xd2, 0x47, 0x3d,
  0x1e, 0x4c, 0xa2, 0x3e, 0xa7, 0xb3, 0xfd, 0x3d, 0x8a, 0x12, 0x6c, 0xbf,
  0x0e, 0x51, 0x18, 0x3e, 0x11, 0xfe, 0x1e, 0x3e, 0x24, 0x9c, 0xf7, 0x3c,
  0x4c, 0x1d, 0xab, 0xbd, 0x2f, 0x8c, 0x90, 0x3c, 0x79, 0x2e, 0x78, 0xbd,
  0x96, 0xf7, 0xb6, 0x3e, 0xa1, 0x25, 0x91, 0xbd, 0x3c, 0xb4, 0x03, 0x3f,
  0x09, 0x43, 0x30, 0x3e, 0x26, 0x86, 0x50, 0xbf, 0x31, 0xae, 0xc6, 0x3c,
  0xcf, 0xb2, 0x9d, 0x3b, 0x71, 0xd2, 0x84, 0x3e, 0x10, 0xd0, 0x90, 0xbc,
  0xc8, 0x21, 0xbe, 0xbe, 0xe4, 0xfd, 0x1c, 0x3e, 0x50, 0x6c, 0x93, 0x3e,
  0x60, 0x0f, 0x59, 0xbd, 0x1d, 0xc1, 0x1b, 0xbe, 0x84, 0xc2, 0x57, 0x3e,
  0x4b, 0xf6, 0x20, 0x3e, 0x3f, 0x91, 0x53, 0x3e, 0x46, 0xa0, 0xd3, 0xbb,
  0x07, 0x22, 0xe4, 0x3e, 0xe5, 0x19, 0xc3, 0x3d, 0xbc, 0x98, 0xfa, 0xbe,
  0x9a, 0xae, 0xeb, 0x3c, 0xb4, 0xeb, 0x57, 0x3d, 0xb6, 0x28, 0x4a, 0x3e,
  0x11, 0x18, 0xdd, 0x3d, 0xcf, 0x1a, 0x3a, 0xbe, 0x6b, 0x90, 0x26, 0x3e,
  0x40, 0xc3, 0x7e, 0x3c, 0xbf, 0x95, 0x8f, 0xbd, 0x67, 0x06, 0xbf, 0xbc,
  0x9e, 0x49, 0x8e, 0x3e, 0x06, 0xfe, 0x3f, 0x3e, 0x40, 0x8a, 0x74, 0x3e,
  0x03, 0x98, 0x3b, 0xbe, 0xf8, 0x7d, 0x83, 0x3e, 0x6f, 0xf3, 0xb9, 0x3c,
  0xaa, 0x26, 0x13, 0xbe, 0xa5, 0x14, 0x87, 0x3d, 0xa6, 0x2f, 0x0b, 0xbd,
  0x61, 0x5f, 0x2a, 0x3d, 0xaf, 0x1f, 0xdd, 0x3b, 0xdb, 0xeb, 0x5e, 0xbd,
  0xe1, 0xaa, 0xac, 0x3e, 0x34, 0x57, 0x0f, 0x3e, 0x71, 0x4d, 0xe5, 0xbc,
  0xc8, 0x1b, 0x21, 0xbd, 0x3a, 0x77, 0x99, 0x3e, 0x21, 0xf7, 0xd7, 0xbd,
  0x96, 0x56, 0xd1, 0x3d, 0x8e, 0x9e, 0x04, 0xbe, 0x0c, 0x92, 0x78, 0x3e,
  0x2e, 0x16, 0x01, 0x3e, 0xbb, 0x27, 0x59, 0xbe, 0xee, 0x7f, 0xb3, 0xbc,
  0x7a, 0xde, 0x3f, 0xbe, 0x23, 0xf6, 0xda, 0x3d, 0x2b, 0x04, 0x45, 0x3d,
  0x27, 0x39, 0x13, 0xbd, 0xd5, 0x08, 0x63, 0x3e, 0x52, 0x05, 0xc7, 0xba,
  0x5b, 0x25, 0xe7, 0x3b, 0xf9, 0x7f, 0xce, 0x3d, 0xf6, 0x9e, 0x51, 0x3e,
  0xd7, 0x4a, 0x6b, 0xbe, 0x98, 0x19, 0x94, 0x3e, 0x38, 0x3f, 0x43, 0xbd,
  0x9d, 0x2b, 0xbb, 0x3d, 0x3e, 0x13, 0x22, 0x3e, 0x0a, 0xce, 0xbb, 0xbd,
  0xa6, 0xf0, 0xa3, 0x3d, 0xcc, 0x84, 0xac, 0xbe, 0xd4, 0x0c, 0xff, 0x3d,
  0xf7, 0xb5, 0x48, 0x3e, 0x52, 0x61, 0xdd, 0x3c, 0x87, 0xd2, 0x0d, 0xbe,
  0xb1, 0xd4, 0xa0, 0x3a, 0x86, 0x6d, 0x96, 0x3d, 0x45, 0x45, 0x1e, 0xbd,
  0xb7, 0x68, 0x1e, 0x3e, 0x2f, 0xb0, 0x98, 0xbd, 0xdc, 0x73, 0x8c, 0xbe,
  0xa7, 0x10, 0x64, 0xbd, 0xc3, 0xeb, 0x93, 0xbe, 0xa2, 0x7c, 0x41, 0xbd,
  0xb3, 0x0e, 0xd9, 0xbc, 0xa1, 0xc1, 0xbc, 0xbe, 0xa5, 0x95, 0xaa, 0xbd,
  0xe9, 0xec, 0x24, 0xbe, 0x5e, 0x7e, 0xfa, 0x3d, 0x28, 0x4b, 0xbf, 0xbd,
  0x62, 0x3a, 0x45, 0x3e, 0x05, 0x7d, 0x50, 0x3d, 0xc0, 0x4a, 0xc8, 0xbc,
  0xe6, 0x1e, 0x33, 0xbe, 0xbc, 0xaf, 0x7d, 0xbe, 0x93, 0xdd, 0x83, 0x3c,
  0xc4, 0xdf, 0xd4, 0x3e, 0x5b, 0x44, 0xa6, 0xbd, 0x8d, 0x75, 0x8d, 0xbd,
  0xc0, 0x6c, 0x21, 0xbe, 0x2b, 0xbd, 0x9c, 0xbb, 0xb5, 0xe5, 0x93, 0xbe,
  0x9b, 0x22, 0xcc, 0xbc, 0x41, 0xad, 0xa2, 0xbd, 0x61, 0xc2, 0x1a, 0xbe,
  0x7f, 0x98, 0x58, 0xbd, 0x64, 0xbe, 0xa4, 0x3e, 0x8b, 0x34, 0x1e, 0x3e,
  0x89, 0x5f, 0xb9, 0xbe, 0xf6, 0x6b, 0x07, 0xbe, 0xce, 0xc6, 0x8a, 0x3d,
  0x10, 0x05, 0x30, 0x3d, 0xe4, 0x8a, 0xac, 0x3e, 0x2a, 0x0f, 0x4f, 0xbd,
  0x51, 0xff, 0x2e, 0x3e, 0x48, 0x57, 0x0d, 0xbe, 0x81, 0xb5, 0xd2, 0x3b,
  0x0d, 0xad, 0xcf, 0xbe, 0xd2, 0xb7, 0xd3, 0x3c, 0x25, 0x7b, 0xc5, 0x3c,
  0x07, 0x38, 0x1f, 0xbe, 0x28, 0x79, 0x55, 0xbd, 0x66, 0x0f, 0x82, 0x3e,
  0xfb, 0x47, 0x13, 0xbe, 0x5d, 0x62, 0xce, 0xbe, 0x76, 0x12, 0x43, 0xbd,
  0x14, 0xf1, 0x86, 0x3d, 0xf2, 0xb0, 0x41, 0x3b, 0xa9, 0x7c, 0x0f, 0x3e,
  0xd5, 0xcb, 0x72, 0xbe, 0x97, 0xbf, 0xab, 0x3e, 0x72, 0xe9, 0x93, 0x3d,
  0x8e, 0x2a, 0x91, 0x3a, 0x9e, 0xcf, 0xef, 0xbd, 0xb6, 0x70, 0xae, 0x3c,
  0xc2, 0x59, 0x6c, 0x3e, 0x7c, 0x3b, 0x11, 0x3e, 0xe6, 0x64, 0xa4, 0xbd,
  0x20, 0xce, 0x0c, 0xbd, 0x2a, 0x6d, 0x77, 0xbe, 0x55, 0x9b, 0xa3, 0x3c,
  0x97, 0x69, 0x8e, 0xbd, 0x7f, 0x1d, 0x42, 0xbe, 0x09, 0xf5, 0x8f, 0x3c,
  0xa7, 0x51, 0xb5, 0xbd, 0x82, 0xff, 0x01, 0xbe, 0xf4, 0xfb, 0x12, 0x3e,
  0xce, 0x5a, 0xa3, 0x3d, 0x8b, 0xbb, 0xbe, 0xbb, 0x2c, 0xa2, 0x65, 0x3d,
  0x6b, 0x31, 0x29, 0xbc, 0xf0, 0xc3, 0x96, 0x3e, 0x9f, 0x26, 0x82, 0x3e,
  0x19, 0x2f, 0x82, 0xbd, 0x44, 0xa1, 0x47, 0xbe, 0x61, 0x3e, 0x91, 0xbe,
  0x45, 0x5b, 0x17, 0x3c, 0x36, 0xb3, 0xc5, 0xbd, 0xf1, 0x6a, 0xd8, 0xbe,
  0x6c, 0xbc, 0x6d, 0x3c, 0x01, 0xc2, 0x99, 0xbd, 0x58, 0x3d, 0xca, 0xbe,
  0xa8, 0x76, 0x55, 0xbe, 0xdc, 0x8f, 0xd5, 0x3c, 0xa7, 0xf4, 0x6e, 0xbd,
  0xbb, 0xb8, 0x86, 0x3d, 0x60, 0x4b, 0x1b, 0xbe, 0x42, 0x07, 0xcc, 0x3d,
  0xb5, 0x68, 0x6f, 0x3e, 0x4e, 0x5e, 0x00, 0xbe, 0x24, 0x0b, 0x3b, 0xbc,
  0x83, 0xc0, 0x85, 0x3c, 0xa4, 0xfa, 0x9c, 0x3c, 0x2f, 0x2e, 0xf6, 0x3d,
  0x5a, 0xb5, 0x3b, 0xbd, 0xa8, 0x6b, 0x32, 0xbd, 0x7d, 0x9d, 0x99, 0x3e,
  0x93, 0x09, 0x29, 0xbd, 0xc6, 0x48, 0x1b, 0xbd, 0xe8, 0x53, 0xa1, 0xbd,
  0xad, 0x07, 0x1c, 0xbc, 0x97, 0x2f, 0xc3, 0xbc, 0x22, 0x32, 0x06, 0x3e,
  0x96, 0x84, 0x3d, 0xbd, 0x82, 0xd6, 0x47, 0xbe, 0xea, 0x03, 0x09, 0x3d,
  0x54, 0x95, 0x21, 0x3d, 0x5b, 0xa5, 0xab, 0xbd, 0x4e, 0x92, 0xa3, 0xbe,
  0x66, 0x79, 0xd9, 0xbd, 0xec, 0x2b, 0xf6, 0xbd, 0x4b, 0x08, 0xbb, 0xbd,
  0xda, 0xbe, 0x40, 0xbd, 0x46, 0x23, 0x80, 0xbe, 0x8c, 0x21, 0xf2, 0xbc,
  0xa4, 0xd7, 0x3f, 0x3e, 0x6f, 0xfe, 0x7e, 0x3e, 0xf5, 0xc8, 0x10, 0xbd,
  0x31, 0xdd, 0x5a, 0x3e, 0x72, 0x6f, 0xb3, 0xbd, 0x13, 0x6a, 0x71, 0x3d,
  0x3a, 0xe1, 0x60, 0xbd, 0x92, 0xc7, 0x21, 0x3e, 0xff, 0x5e, 0x4d, 0xbe,
  0x64, 0x5f, 0x08, 0xbe, 0x90, 0x3c, 0x9e, 0xbe, 0xb5, 0xf1, 0x04, 0xbe,
  0x2b, 0x68, 0x18, 0x3e, 0xb1, 0x76, 0x91, 0xbd, 0x8a, 0xae, 0x40, 0xbd,
  0xea, 0xce, 0x63, 0x3d, 0x91, 0x85, 0x09, 0x3d, 0xad, 0x92, 0x87, 0xbd,
  0x39, 0xe8, 0x56, 0xbc, 0xd0, 0x6e, 0xee, 0x3c, 0x7c, 0x1f, 0x93, 0xbd,
  0x0a, 0x96, 0x00, 0xbe, 0x63, 0xc8, 0xbb, 0x3d, 0x2b, 0xe0, 0x4e, 0x3e,
  0x7e, 0x02, 0x2d, 0x3d, 0xed, 0x3f, 0x33, 0xbe, 0xdd, 0x19, 0x91, 0xbe,
  0xa3, 0x33, 0x98, 0xbd, 0x23, 0x0a, 0xe5, 0x3d, 0xb2, 0x6e, 0x08, 0xbe,
  0x3b, 0xd0, 0x04, 0xbd, 0x30, 0xeb, 0xa4, 0x3d, 0x6e, 0x8c, 0x36, 0x3e,
  0xfa, 0x31, 0xcd, 0xbd, 0x8e, 0xee, 0x8a, 0x3c, 0x43, 0xd4, 0x4c, 0x3d,
  0x05, 0x66, 0xef, 0x3d, 0x14, 0xed, 0x8a, 0x3e, 0x73, 0x7c, 0x07, 0x3e,
  0xb0, 0xff, 0x44, 0x3e, 0x35, 0xd2, 0x36, 0xbd, 0x77, 0x6a, 0xbb, 0xbd,
  0x37, 0xa3, 0xf6, 0xbc, 0x63, 0x49, 0xcc, 0xbd, 0xf9, 0xb3, 0x47, 0x3d,
  0x36, 0xe9, 0x97, 0xbc, 0x33, 0x6e, 0x3c, 0x3d, 0xe5, 0xde, 0x1a, 0x3e,
  0xa1, 0x0c, 0x4e, 0x3d, 0x53, 0x14, 0xc9, 0xbc, 0x18, 0xaa, 0x09, 0xbe,
  0x99, 0x27, 0x12, 0x3e, 0x64, 0x7a, 0xa5, 0x3c, 0x9f, 0x30, 0x52, 0x3e,
  0xd8, 0x43, 0xe0, 0xba, 0x70, 0x43, 0x69, 0x3e, 0x3b, 0xc0, 0x97, 0xbd,
  0x10, 0xd8, 0x3e, 0xbe, 0x80, 0xec, 0x22, 0x3e, 0xe9, 0x04, 0xcd, 0x3d,
  0xa7, 0x02, 0x93, 0x3e, 0x89, 0xb7, 0x85, 0xbe, 0xb9, 0x3c, 0x1b, 0xbd,
  0xa3, 0xf9, 0x14, 0xbd, 0x03, 0x56, 0xd4, 0x3d, 0x1b, 0x39, 0xbd, 0x3d,
  0xc3, 0x65, 0x81, 0xbe, 0xbb, 0x1b, 0x13, 0xbe, 0x0a, 0x6b, 0x3a, 0xbd,
  0xc1, 0xf5, 0xeb, 0xbd, 0x04, 0xc8, 0x8f, 0x3e, 0xa0, 0x7f, 0x31, 0x3d,
  0x15, 0x55, 0x16, 0xbd, 0x15, 0xec, 0x00, 0xbe, 0xf8, 0xe8, 0x7d, 0xbe,
  0x37, 0xf5, 0x2f, 0xbe, 0xd8, 0xdd, 0x5f, 0xbe, 0x74, 0x30, 0x84, 0xbd,
  0x23, 0xf1, 0x93, 0x3d, 0x76, 0x1a, 0x0b, 0x3e, 0xbb, 0x88, 0xb3, 0xbd,
  0x33, 0x82, 0xb1, 0xbd, 0xe9, 0x46, 0x87, 0xbe, 0x90, 0x44, 0x25, 0xbe,
  0x4b, 0x39, 0xa9, 0x3d, 0x2b, 0x7d, 0x76, 0xbd, 0xbc, 0x36, 0x8d, 0x3b,
  0xec, 0x20, 0xa2, 0x3c, 0x4b, 0x8d, 0xad, 0xbd, 0x35, 0x3c, 0xeb, 0xbe,
  0x3b, 0xf5, 0x74, 0xbe, 0x00, 0x89, 0x9b, 0xbc, 0x6b, 0x18, 0x7b, 0xbd,
  0x53, 0x61, 0x4b, 0x3e, 0x75, 0x01, 0x3b, 0xbc, 0x17, 0xd5, 0x9c, 0x3d,
  0x0d, 0x8c, 0x2e, 0xbe, 0xbc, 0xfd, 0x1b, 0x3e, 0x82, 0xf0, 0x99, 0xbd,
  0x91, 0xa0, 0x88, 0x3d, 0xb5, 0x06, 0xdc, 0xbc, 0xa2, 0xc4, 0x09, 0xbe,
  0xa2, 0x66, 0x54, 0x3c, 0x2f, 0x02, 0x0b, 0x3e, 0x1c, 0x2e, 0x8c, 0xbd,
  0xd8, 0xae, 0x40, 0xbe, 0x5e, 0x2a, 0x89, 0xbc, 0x96, 0x30, 0x2b, 0xbe,
  0xab, 0x0a, 0xa2, 0x3e, 0x3d, 0x44, 0x6c, 0xbd, 0xd3, 0xe5, 0xa1, 0xbe,
  0xba, 0xe4, 0x2c, 0x3e, 0xb2, 0x8c, 0x21, 0x3d, 0x78, 0x93, 0xc0, 0xbd,
  0x53, 0xe0, 0xef, 0x3d, 0xc3, 0x71, 0x76, 0xbd, 0xaa, 0x76, 0x52, 0x3d,
  0x8b, 0x66, 0x00, 0xbe, 0x11, 0xd5, 0xa1, 0x36, 0x2e, 0xbe, 0x91, 0xbd,
  0xae, 0xb6, 0x81, 0xbe, 0xdf, 0x7a, 0x0d, 0xbe, 0x2b, 0x89, 0x05, 0xbe,
  0x6c, 0xde, 0x13, 0x3e, 0x18, 0xe7, 0x12, 0x3e, 0xe6, 0x16, 0x56, 0xbd,
  0x72, 0x8c, 0x8e, 0xbd, 0x28, 0xd0, 0xcc, 0x3d, 0x7f, 0x82, 0x23, 0x3e,
  0x72, 0x43, 0x02, 0xbe, 0xe0, 0x57, 0x77, 0xbe, 0xac, 0x6e, 0xdb, 0xbd,
  0xf1, 0xa1, 0xf0, 0xbc, 0xdc, 0x4a, 0x33, 0x3e, 0xf9, 0x7e, 0x40, 0xbe,
  0xd4, 0x6b, 0xe1, 0x3d, 0xcc, 0x41, 0x42, 0xbd, 0xa0, 0xf8, 0xa7, 0xbd,
  0x1f, 0xbc, 0x5e, 0x3c, 0xe7, 0x3a, 0x53, 0x3e, 0x3e, 0x1d, 0x4f, 0x3e,
  0x77, 0x73, 0xcc, 0xbc, 0xfa, 0x27, 0x3b, 0xbd, 0x9c, 0x86, 0xfe, 0xbc,
  0x55, 0x20, 0x7b, 0xbe, 0x4f, 0x8c, 0xb1, 0x3d, 0x39, 0x8a, 0x3f, 0xbd,
  0xd4, 0xa8, 0x97, 0xbd, 0x76, 0x79, 0xe8, 0x3c, 0x82, 0x92, 0x59, 0xbe,
  0x14, 0x68, 0x9c, 0xbe, 0x09, 0x25, 0xb7, 0x3e, 0xa8, 0x65, 0xbd, 0x3d,
  0xb9, 0xd3, 0xb1, 0xbe, 0xd1, 0x62, 0xa5, 0x3e, 0xd1, 0x4c, 0xa6, 0x3c,
  0x7d, 0x64, 0x05, 0xbe, 0x79, 0x00, 0x4e, 0xbd, 0x76, 0xf2, 0xfa, 0xbd,
  0x08, 0x51, 0x43, 0xbd, 0xfd, 0x8c, 0xda, 0x3c, 0x31, 0x42, 0xb8, 0xbd,
  0x7a, 0xb7, 0x81, 0xbe, 0x4f, 0xd0, 0x81, 0xbd, 0xb1, 0x58, 0x5e, 0xbe,
  0xd7, 0x77, 0x9c, 0xbc, 0xa8, 0x3f, 0x03, 0x3c, 0x3c, 0xe0, 0x66, 0x3e,
  0xc9, 0x3f, 0x2c, 0x3d, 0xb5, 0x59, 0x84, 0xbe, 0x32, 0xe5, 0xf6, 0x3d,
  0xcd, 0x60, 0x73, 0x3e, 0x94, 0x95, 0x83, 0xbd, 0x57, 0xfa, 0xc7, 0x3d,
  0x8c, 0xe4, 0x12, 0xbc, 0x68, 0xaf, 0xa3, 0xbb, 0xaa, 0xbe, 0xef, 0xbd,
  0x74, 0xec, 0x2c, 0xbe, 0xd9, 0x9a, 0x6e, 0xbe, 0xef, 0x48, 0x23, 0x3d,
  0x24, 0x20, 0xa6, 0xbd, 0x0f, 0x78, 0x9f, 0x3c, 0x59, 0xbd, 0x94, 0x3d,
  0x8b, 0x5b, 0x57, 0xbe, 0xb2, 0xb0, 0xa0, 0xbd, 0x32, 0x5b, 0xa0, 0xbe,
  0xb1, 0xf3, 0xfb, 0x3d, 0xb6, 0xf4, 0xa0, 0x3c, 0x8b, 0x7d, 0x96, 0x3d,
  0x13, 0xc6, 0x27, 0x3c, 0x02, 0x14, 0xbc, 0x3c, 0x62, 0x46, 0x6e, 0xbe,
  0x87, 0xe6, 0xa5, 0xbd, 0x2e, 0x57, 0xe2, 0xbc, 0x87, 0x3e, 0xf5, 0x3c,
  0x14, 0x36, 0x5b, 0x3e, 0xc5, 0x08, 0x38, 0xbc, 0xaf, 0x09, 0x06, 0x3d,
  0x73, 0xa6, 0xec, 0x3d, 0xfb, 0x8b, 0x16, 0xbe, 0xf2, 0x83, 0xfc, 0xbd,
  0x94, 0x04, 0x31, 0xbe, 0xec, 0xc5, 0x0c, 0xbe, 0x2a, 0x8e, 0x7f, 0xbe,
  0xfe, 0x36, 0x13, 0x3e, 0xa8, 0x2a, 0xf6, 0xbb, 0x4e, 0x3f, 0x24, 0x3d,
  0x63, 0x31, 0x3a, 0xbd, 0x88, 0xfd, 0x5d, 0xbe, 0x9b, 0x93, 0x10, 0xbe,
  0x7f, 0x86, 0x6e, 0xbd, 0xf6, 0x12, 0x46, 0xbe, 0xf1, 0x04, 0xcf, 0xbd,
  0x57, 0x32, 0x20, 0xbe, 0x36, 0x10, 0xf9, 0x3d, 0x51, 0x76, 0x8a, 0x3e,
  0xa2, 0x9a, 0x94, 0xbd, 0xb7, 0x2c, 0x05, 0xbe, 0x8c, 0xbc, 0xc2, 0xbd,
  0xf1, 0x01, 0x26, 0xbe, 0x9b, 0xca, 0x26, 0xbd, 0xa5, 0xea, 0x47, 0xbe,
  0x03, 0xbf, 0x84, 0xbe, 0x92, 0x80, 0xb4, 0x3d, 0xf5, 0x21, 0x77, 0x3d,
  0x7b, 0x0d, 0x9f, 0xbd, 0xc9, 0x14, 0x91, 0xbe, 0x54, 0x2c, 0x3e, 0x3c,
  0x51, 0x52, 0x93, 0x3d, 0xce, 0x57, 0x02, 0xbe, 0x79, 0x80, 0xd2, 0x3d,
  0x7f, 0x2c, 0x28, 0x3e, 0x70, 0xc5, 0xb0, 0xbd, 0xd2, 0x1e, 0x5f, 0xbd,
  0xa3, 0x47, 0x71, 0xbe, 0x15, 0xbc, 0xdd, 0xbd, 0xcc, 0xe9, 0x12, 0x3e,
  0xfe, 0x0a, 0xcc, 0x3d, 0x10, 0xba, 0x9e, 0xbd, 0x9a, 0x03, 0xb7, 0xbb,
  0x0d, 0x68, 0x0d, 0x3e, 0x39, 0xd7, 0x1b, 0xbe, 0x49, 0xdd, 0x36, 0xbd,
  0x3d, 0x5c, 0x4e, 0xbc, 0xc4, 0x18, 0x4f, 0x3e, 0x30, 0xec, 0xc3, 0x3d,
  0x5a, 0xdc, 0x3f, 0xbd, 0x6a, 0x22, 0xd3, 0xbb, 0x7b, 0xdb, 0x04, 0xbd,
  0x08, 0x22, 0xbe, 0xbd, 0xaf, 0x12, 0x24, 0xbe, 0x4b, 0x56, 0x41, 0x3e,
  0xdf, 0x0e, 0x35, 0xbd, 0x4a, 0xee, 0x19, 0xbe, 0xfe, 0x7c, 0xfe, 0x3d,
  0xba, 0x1b, 0xa5, 0xbd, 0xcc, 0x60, 0xd2, 0xbd, 0x3b, 0xa6, 0xbc, 0xbe,
  0x79, 0x1f, 0xd2, 0xbc, 0x4f, 0x11, 0x06, 0x3e, 0x4b, 0x21, 0xb3, 0xbb,
  0xc0, 0x02, 0x9d, 0x3d, 0xf0, 0xb5, 0x70, 0xbd, 0x5a, 0x46, 0xb6, 0x3d,
  0xb8, 0x2a, 0x8b, 0x3d, 0xad, 0x38, 0x17, 0x3d, 0x5f, 0xde, 0xeb, 0xbd,
  0x37, 0xfd, 0x76, 0x3b, 0x11, 0xf6, 0x48, 0x3e, 0x5f, 0x81, 0x51, 0x3e,
  0xf3, 0x56, 0x90, 0x3d, 0x00, 0x91, 0xb9, 0xbc, 0xf3, 0x77, 0x54, 0x3d,
  0xe3, 0x08, 0x6c, 0xb9, 0x8e, 0x15, 0x01, 0xbe, 0xc8, 0xdd, 0xa4, 0x3c,
  0x60, 0x71, 0x8b, 0xbd, 0x54, 0xaa, 0x8b, 0x3e, 0x8b, 0x55, 0x60, 0x3d,
  0x04, 0x6e, 0xed, 0x3d, 0xb7, 0x8f, 0x6b, 0xbd, 0x7c, 0x76, 0x41, 0xbd,
  0xa0, 0x12, 0xa5, 0xbd, 0x26, 0x51, 0x7b, 0x3c, 0x53, 0xdc, 0xa6, 0x3d,
  0x78, 0x16, 0x45, 0xbe, 0x94, 0xe9, 0x77, 0xbd, 0xb8, 0x5a, 0x11, 0x3e,
  0x82, 0x56, 0xab, 0x3d, 0x29, 0xa6, 0x30, 0xbe, 0x86, 0x9c, 0x67, 0x3a,
  0x91, 0x59, 0x5b, 0x3e, 0xf4, 0xa4, 0x8f, 0xbd, 0x40, 0xe0, 0xe5, 0x3d,
  0xc9, 0x69, 0x7d, 0xbe, 0x2c, 0xe7, 0x24, 0x3e, 0xdd, 0xa9, 0x09, 0x3e,
  0x7e, 0x0b, 0x6d, 0xbe, 0x2a, 0x36, 0x4f, 0xbe, 0x4c, 0x90, 0x7a, 0xbd,
  0x57, 0x24, 0xeb, 0x3d, 0xa5, 0xc6, 0x57, 0xbe, 0x24, 0x29, 0x06, 0x3e,
  0x8c, 0x3d, 0xe0, 0x3d, 0x87, 0xdb, 0xaf, 0xbe, 0x8b, 0x06, 0xb7, 0xbd,
  0xfb, 0x10, 0x0c, 0xbe, 0x5a, 0x33, 0x39, 0xbd, 0xb2, 0x84, 0x93, 0xbd,
  0xc3, 0xbc, 0x37, 0x3e, 0xc8, 0xa8, 0x21, 0x3d, 0x8b, 0xaf, 0x83, 0xbd,
  0x97, 0x4a, 0x70, 0xbe, 0xba, 0xa2, 0x27, 0xbe, 0x26, 0xa1, 0x62, 0xbe,
  0x53, 0x63, 0xbc, 0x3c, 0x75, 0xce, 0x1c, 0xbe, 0x58, 0x75, 0x97, 0x3d,
  0xb9, 0x39, 0x56, 0xbd, 0xd7, 0x9b, 0x36, 0x3e, 0x7b, 0x79, 0x70, 0x3e,
  0xa2, 0xb9, 0x04, 0xbf, 0x27, 0x9e, 0x64, 0x3d, 0x91, 0xf9, 0x3e, 0xbe,
  0xc8, 0x75, 0x47, 0x3c, 0x93, 0xa8, 0x90, 0xbd, 0xdd, 0x0e, 0x0c, 0xbf,
  0xa1, 0x48, 0x78, 0x3e, 0x3b, 0x63, 0xb8, 0xbe, 0x57, 0xdf, 0x35, 0xbd,
  0x35, 0xee, 0x98, 0x3c, 0xa7, 0x0f, 0xba, 0x3e, 0xbd, 0xb2, 0x89, 0xbe,
  0x56, 0x2c, 0x3a, 0x3e, 0x16, 0x18, 0x06, 0x3e, 0x8f, 0x8e, 0x49, 0x3e,
  0xfb, 0xdd, 0x65, 0x3e, 0x81, 0x30, 0x35, 0x3d, 0xb7, 0x04, 0xe7, 0x3d,
  0x0b, 0x53, 0xeb, 0x3d, 0xd9, 0x1d, 0x99, 0x3e, 0x31, 0xa4, 0x92, 0x3e,
  0x7c, 0x01, 0xcf, 0xbd, 0x03, 0x8c, 0x91, 0x3e, 0x3f, 0x5e, 0x8e, 0xbe,
  0x53, 0x92, 0xf0, 0x3c, 0x4d, 0xad, 0x02, 0xbb, 0x13, 0xde, 0x73, 0x3e,
  0xa3, 0xb2, 0x97, 0xbe, 0x2a, 0xc2, 0x76, 0x3e, 0xc7, 0x79, 0x85, 0xbe,
  0x46, 0x7e, 0x0b, 0x3f, 0xef, 0xe0, 0x0e, 0xbc, 0x03, 0xa4, 0x83, 0xbc,
  0x61, 0xc7, 0x31, 0x3d, 0xf8, 0x68, 0x8c, 0xbc, 0x6e, 0x70, 0xcf, 0x3e,
  0x19, 0x7e, 0xf9, 0x3d, 0xef, 0xf4, 0x43, 0x3c, 0x09, 0x03, 0x55, 0x3e,
  0x38, 0xad, 0xbf, 0xbd, 0x7e, 0x2e, 0x92, 0xbd, 0x09, 0xef, 0x5a, 0xbd,
  0x86, 0x36, 0xfa, 0x3d, 0x28, 0x07, 0x80, 0xbe, 0x2a, 0xdf, 0xac, 0x3d,
  0xcc, 0x44, 0x22, 0xbe, 0xdb, 0x99, 0x06, 0x3f, 0x50, 0x0f, 0x50, 0x3d,
  0xde, 0x69, 0x17, 0xbe, 0x5e, 0x46, 0xe9, 0x3d, 0x35, 0xc4, 0xb3, 0x3d,
  0xc3, 0x43, 0xf0, 0x3d, 0xe5, 0xbc, 0x26, 0x3e, 0xea, 0x6c, 0x09, 0xbe,
  0xcf, 0x24, 0x19, 0x3d, 0x88, 0x10, 0x8b, 0x3b, 0x2f, 0x15, 0x47, 0xbd,
  0xb5, 0xe7, 0x26, 0xbe, 0x9e, 0x96, 0xa0, 0xbd, 0x84, 0xc8, 0x10, 0xbe,
  0x05, 0x4a, 0x61, 0x3e, 0x7b, 0xb9, 0x79, 0xbe, 0x88, 0x50, 0xe2, 0x3e,
  0x05, 0x9c, 0x85, 0x39, 0x38, 0x39, 0x21, 0xbe, 0xb4, 0xe5, 0x88, 0x3d,
  0xbd, 0x7e, 0x36, 0xbd, 0xbd, 0xbc, 0x82, 0x3e, 0x1c, 0x6a, 0x69, 0x3d,
  0x29, 0x60, 0xdb, 0xbd, 0x06, 0xef, 0x97, 0x3e, 0x6f, 0x58, 0x93, 0xbc,
  0xb4, 0xae, 0xe9, 0xbd, 0xc0, 0x58, 0x19, 0xbe, 0x68, 0x5f, 0x87, 0x3e,
  0x89, 0x80, 0x83, 0xbe, 0x66, 0xb0, 0x6a, 0x3e, 0x7d, 0x00, 0x96, 0xbe,
  0x71, 0x2a, 0xc6, 0x3e, 0x73, 0x1e, 0xda, 0x3d, 0x7d, 0x65, 0x9a, 0x3b,
  0x49, 0x37, 0xd7, 0xbd, 0x26, 0x19, 0xef, 0x3d, 0xac, 0xfc, 0x5c, 0xbc,
  0x11, 0xd2, 0xdc, 0x3c, 0x90, 0xde, 0x9a, 0x3b, 0xb9, 0xec, 0xcf, 0x3e,
  0xae, 0x6f, 0x6d, 0x3e, 0x89, 0x41, 0x36, 0xbd, 0xd9, 0x2d, 0x7d, 0x3c,
  0x41, 0x85, 0x3f, 0xbb, 0xf9, 0x4f, 0x14, 0xbc, 0x5a, 0x25, 0xc6, 0x3e,
  0xbf, 0x43, 0x3a, 0xbd, 0x42, 0x9e, 0x8d, 0x3e, 0xec, 0x16, 0xb4, 0x3c,
  0x33, 0xf8, 0xb1, 0xbd, 0x9c, 0x75, 0x26, 0xbe, 0xec, 0xc3, 0x31, 0xbc,
  0x2b, 0x96, 0x96, 0x3e, 0xc8, 0x87, 0x48, 0x3c, 0x18, 0x39, 0xda, 0xbd,
  0x64, 0xfa, 0x41, 0xbd, 0xe2, 0x59, 0x38, 0x3c, 0x82, 0x03, 0x4a, 0xbd,
  0x2a, 0x26, 0x99, 0xbd, 0x1b, 0x9b, 0x87, 0x3e, 0xb8, 0xda, 0x69, 0xbe,
  0x8e, 0x44, 0x7f, 0xbd, 0x43, 0x60, 0x8c, 0x3c, 0xcb, 0x4b, 0x44, 0x3e,
  0xe4, 0x39, 0xd5, 0xbd, 0x7a, 0x14, 0xa6, 0xbd, 0xd2, 0xed, 0x3d, 0xbe,
  0xab, 0x30, 0x3d, 0x3e, 0x35, 0xa9, 0xaf, 0xbc, 0xc8, 0x31, 0x92, 0xbe,
  0x9c, 0x9f, 0x2c, 0x3c, 0x2a, 0x78, 0x7f, 0x3b, 0x72, 0xac, 0x88, 0xbd,
  0xf0, 0xfd, 0xa4, 0xbe, 0x19, 0xaa, 0x30, 0xbe, 0x87, 0x7f, 0x41, 0xbe,
  0xaf, 0x71, 0x97, 0x3e, 0xed, 0x07, 0x5e, 0xbe, 0xf8, 0x62, 0x9f, 0xbe,
  0xb9, 0xa7, 0x03, 0xbe, 0x8b, 0xd4, 0xa0, 0xbe, 0x8e, 0xef, 0xdd, 0xbe,
  0xd6, 0x3c, 0xc5, 0xbd, 0xf2, 0xbc, 0x4a, 0x3d, 0xdd, 0x54, 0x99, 0x3b,
  0x7e, 0xe2, 0xab, 0xbd, 0x03, 0xf2, 0xfb, 0xbd, 0xd2, 0x3b, 0x0f, 0x3d,
  0xb0, 0x9e, 0xb5, 0xbd, 0xed, 0x21, 0xa7, 0xbe, 0x0f, 0x50, 0xd9, 0x3c,
  0x44, 0x15, 0xe0, 0x3d, 0x32, 0x61, 0x57, 0x3e, 0x84, 0x61, 0x23, 0xbe,
  0x89, 0xb1, 0x17, 0xbe, 0x87, 0x44, 0xe3, 0x3d, 0x43, 0x7f, 0x8a, 0xbd,
  0x9a, 0xa5, 0x8e, 0xbe, 0x1c, 0x2e, 0x33, 0x3c, 0x03, 0xec, 0x1f, 0x3c,
  0xdd, 0xfd, 0x76, 0x3c, 0x28, 0x78, 0x14, 0x3e, 0x66, 0xb6, 0x8b, 0x3d,
  0x4b, 0x59, 0x09, 0xbe, 0x8e, 0x6f, 0x95, 0x3e, 0x4f, 0x1a, 0x60, 0xbe,
  0xfc, 0xb0, 0xf5, 0x3d, 0x8a, 0xf7, 0x7f, 0x3d, 0xa9, 0x0a, 0xf1, 0xbb,
  0x35, 0x00, 0xdb, 0xbd, 0x8c, 0x3f, 0xe9, 0x3d, 0x4f, 0x17, 0x60, 0xbd,
  0xa4, 0x36, 0x3c, 0xbe, 0xeb, 0x7a, 0x8b, 0xbe, 0x7f, 0xfc, 0x97, 0xbe,
  0x74, 0xbc, 0xd0, 0x3d, 0xbb, 0xe6, 0xa2, 0x3c, 0x05, 0x31, 0xbf, 0xbd,
  0xf1, 0xe5, 0xcb, 0x3d, 0xc4, 0x0a, 0x70, 0x3e, 0x69, 0xfb, 0xdf, 0xbd,
  0xda, 0x79, 0x74, 0xbe, 0x0a, 0x53, 0xf6, 0x3d, 0x5f, 0x61, 0x1b, 0x3e,
  0xe8, 0xca, 0x03, 0x3f, 0xd9, 0xd1, 0x4f, 0x3c, 0x28, 0xdd, 0x93, 0xbd,
  0xb1, 0x12, 0x8e, 0xbd, 0xbe, 0xf3, 0x2f, 0xbe, 0x3f, 0x8b, 0xa4, 0xbe,
  0x60, 0xe5, 0x38, 0xbe, 0x13, 0xe8, 0x66, 0xbd, 0x84, 0x60, 0x75, 0x3e,
  0x4d, 0x10, 0x34, 0xbd, 0xb7, 0x66, 0xfc, 0x3d, 0x05, 0x08, 0x1b, 0x3e,
  0x31, 0x95, 0x3f, 0x3e, 0xf4, 0x91, 0x72, 0xbe, 0x04, 0x46, 0x94, 0xbd,
  0xcf, 0x63, 0xc2, 0x3d, 0xec, 0xbc, 0x93, 0x3e, 0xeb, 0x45, 0xc1, 0x3c,
  0x0e, 0x11, 0x88, 0x3d, 0x31, 0x2b, 0x15, 0x3e, 0x10, 0x26, 0x0d, 0xbe,
  0xde, 0x67, 0x1e, 0xbe, 0x20, 0x70, 0x59, 0xbd, 0x78, 0xe0, 0x92, 0x3d,
  0x1c, 0xc8, 0x6e, 0x3d, 0xb5, 0x4c, 0x5b, 0x3d, 0x77, 0x98, 0x0d, 0x3e,
  0x1d, 0x82, 0x9b, 0x3b, 0x66, 0x9f, 0x44, 0x3e, 0x6e, 0x99, 0xb0, 0xbe,
  0x8e, 0xcb, 0x8d, 0xbc, 0x83, 0x20, 0x7a, 0x3c, 0x28, 0xf8, 0x00, 0x3e,
  0x09, 0x24, 0xa5, 0xbd, 0x28, 0x31, 0x4e, 0x3c, 0x87, 0x5d, 0x2e, 0x3e,
  0x0a, 0x45, 0x95, 0xbe, 0x18, 0x61, 0x2f, 0xbe, 0x7b, 0x9b, 0x24, 0x3d,
  0x75, 0xd7, 0x9d, 0x3d, 0x63, 0x8d, 0x84, 0xbe, 0x63, 0x0a, 0xb4, 0xbd,
  0x18, 0x6b, 0x50, 0xbc, 0x31, 0xd3, 0x76, 0x3d, 0x81, 0xd7, 0xe7, 0x3c,
  0xeb, 0xeb, 0xdc, 0xbe, 0x02, 0x26, 0xa7, 0xbe, 0xfa, 0x0a, 0x49, 0x3c,
  0xb5, 0xfb, 0x0f, 0x3d, 0x5a, 0x0e, 0x18, 0x3e, 0xbb, 0x1b, 0x8d, 0xbd,
  0xcd, 0x38, 0x13, 0x3e, 0x15, 0x6c, 0x26, 0x3e, 0xc4, 0x48, 0xcb, 0xbe,
  0xc7, 0x52, 0x19, 0x3e, 0xb6, 0x14, 0x2f, 0xbd, 0x43, 0x95, 0x70, 0x3d,
  0x43, 0xda, 0x82, 0xbd, 0x0a, 0x3f, 0xab, 0xbe, 0x86, 0x05, 0x03, 0x3e,
  0x47, 0xfd, 0x6f, 0xbd, 0x65, 0xe2, 0x47, 0xbd, 0xc4, 0x60, 0x93, 0x3d,
  0xb7, 0x49, 0x48, 0x3e, 0x22, 0x02, 0x38, 0xbe, 0x32, 0x8e, 0xf7, 0x3e,
  0x06, 0x9a, 0x23, 0xbb, 0x15, 0x35, 0x10, 0x3e, 0x65, 0x47, 0xae, 0x3e,
  0x67, 0xe6, 0xc1, 0xbe, 0x81, 0x10, 0x18, 0x3c, 0x95, 0x77, 0x62, 0x3e,
  0x00, 0x86, 0x8f, 0x3e, 0x96, 0xe6, 0xc5, 0x3e, 0x4d, 0x13, 0x30, 0xbe,
  0xa9, 0x00, 0xeb, 0x3e, 0x8d, 0x46, 0x34, 0xbc, 0xfd, 0xcd, 0xc2, 0xbc,
  0x22, 0x9e, 0x07, 0xbe, 0xfd, 0x17, 0x7d, 0x3d, 0x01, 0x36, 0x35, 0xbc,
  0xfd, 0x26, 0x76, 0x3e, 0x93, 0x71, 0x2e, 0x3d, 0x19, 0x00, 0xc3, 0x3e,
  0x41, 0xf5, 0x1c, 0x3e, 0x62, 0x6f, 0x98, 0xbe, 0xef, 0x68, 0x87, 0xbd,
  0x3a, 0x22, 0x13, 0x3e, 0xa8, 0x4d, 0x8e, 0x3e, 0xd5, 0x9e, 0x7f, 0x3b,
  0xa7, 0xa0, 0x74, 0x3d, 0x6c, 0x86, 0x01, 0x3e, 0x9f, 0x9c, 0x73, 0xbd,
  0x19, 0xd3, 0x07, 0xbe, 0x27, 0x67, 0x24, 0xbe, 0xc9, 0x44, 0xa5, 0x3e,
  0x7f, 0xee, 0xd5, 0x3d, 0x84, 0x88, 0x41, 0x3d, 0xb5, 0x2b, 0x01, 0xbd,
  0xa4, 0x61, 0xfa, 0x3e, 0x5c, 0x52, 0xf9, 0xbc, 0x94, 0x5b, 0xa0, 0xbe,
  0x8c, 0x81, 0xdd, 0x3d, 0xd6, 0x03, 0x35, 0x3e, 0xb4, 0x2f, 0x52, 0x3e,
  0x95, 0x8a, 0x97, 0x3d, 0x56, 0x74, 0xd8, 0x3d, 0x3b, 0xc3, 0x6a, 0x3e,
  0xeb, 0x4a, 0x7a, 0xba, 0x06, 0xcf, 0x3a, 0xbe, 0xc0, 0x17, 0x5b, 0xbe,
  0xa3, 0xfb, 0x7e, 0x3e, 0x3a, 0xbf, 0x80, 0xbd, 0xad, 0xef, 0x53, 0x3e,
  0x8f, 0x18, 0xcf, 0xbd, 0x89, 0xc5, 0x21, 0x3e, 0x0e, 0x94, 0x19, 0x3e,
  0x0f, 0x8e, 0x78, 0xbe, 0xe4, 0x27, 0x16, 0x3e, 0xd8, 0x33, 0x9f, 0x3e,
  0xdf, 0x36, 0x4a, 0x3e, 0x52, 0x8d, 0x26, 0xbd, 0x14, 0x37, 0x93, 0xbc,
  0xff, 0x1b, 0xbe, 0x3e, 0xf5, 0x22, 0x03, 0x3e, 0xcf, 0xce, 0xdb, 0xbd,
  0x11, 0x42, 0x86, 0xbe, 0xab, 0x0d, 0xd5, 0xbc, 0xad, 0x58, 0x34, 0xbd,
  0x64, 0xd0, 0xae, 0x3e, 0x94, 0x09, 0x30, 0xbe, 0x20, 0x1d, 0x9a, 0x3e,
  0x4b, 0xb0, 0xc5, 0x3d, 0x16, 0xac, 0x12, 0xbe, 0x44, 0x29, 0x82, 0x3d,
  0x88, 0x10, 0x4c, 0x3e, 0xc5, 0x04, 0x52, 0xbd, 0x51, 0x3f, 0x63, 0xbe,
  0x38, 0x23, 0x60, 0x3d, 0x1f, 0x8b, 0xcc, 0x3e, 0x7a, 0xaf, 0x4f, 0x3e,
  0x26, 0xa9, 0x7a, 0xbc, 0x79, 0x72, 0x50, 0xba, 0x2f, 0x48, 0xce, 0x3d,
  0x4e, 0xf3, 0x86, 0xbc, 0xa1, 0x1c, 0x30, 0x3e, 0x01, 0xca, 0x98, 0xbd,
  0x7f, 0xb1, 0xb8, 0x3e, 0x7b, 0x79, 0x5d, 0x3e, 0x3c, 0xa6, 0x71, 0xbe,
  0xd7, 0x3b, 0x8c, 0xbc, 0x71, 0x64, 0x2b, 0x3d, 0xe3, 0x36, 0x24, 0x3e,
  0x2e, 0x5e, 0xd9, 0xbd, 0x78, 0x77, 0x64, 0xbc, 0x88, 0x28, 0x44, 0x3e,
  0x05, 0x3e, 0x92, 0x3d, 0x1a, 0x30, 0x36, 0x3d, 0x2d, 0x2f, 0x26, 0x3e,
  0x1a, 0x97, 0x42, 0x3e, 0xb9, 0xd7, 0x9d, 0xbe, 0xee, 0x7b, 0x83, 0x3e,
  0x47, 0x07, 0xb6, 0xbb, 0xf5, 0x40, 0xf7, 0x3d, 0xbe, 0x08, 0xa3, 0xbc,
  0x43, 0x56, 0x02, 0xbe, 0x6a, 0x45, 0x8e, 0xbd, 0xe2, 0x5d, 0xa3, 0x3e,
  0x6b, 0x69, 0x00, 0xbe, 0x6d, 0xc1, 0xd6, 0x3b, 0x2c, 0x29, 0xf8, 0xba,
  0x27, 0x53, 0x25, 0xbd, 0x77, 0x17, 0xf5, 0xbd, 0xb3, 0x78, 0x5a, 0xbd,
  0x32, 0x56, 0x52, 0x39, 0x24, 0x27, 0xb4, 0xbe, 0x78, 0x57, 0xf2, 0x3a,
  0x3c, 0x93, 0x95, 0x3c, 0xe3, 0x06, 0x78, 0xbd, 0xf9, 0xf7, 0xac, 0xbe,
  0x29, 0x9e, 0x9d, 0xbd, 0x51, 0x17, 0x05, 0xbe, 0xfb, 0x7c, 0x2a, 0xbe,
  0x70, 0x98, 0xbb, 0xbd, 0xdf, 0x4d, 0xec, 0x3d, 0x5a, 0x4d, 0x2f, 0xbe,
  0xe2, 0x01, 0x16, 0x3e, 0x6c, 0xcc, 0x9a, 0xbe, 0x27, 0x11, 0x47, 0xbe,
  0xc6, 0xfa, 0x23, 0x3e, 0x83, 0x21, 0x52, 0x3e, 0x16, 0x96, 0x59, 0xbe,
  0x0b, 0x59, 0x4f, 0xbe, 0xb4, 0x57, 0xcf, 0xbe, 0x70, 0x55, 0x33, 0x3d,
  0x90, 0x1d, 0xa4, 0xbe, 0x8c, 0x93, 0x41, 0x3e, 0xf1, 0x35, 0x83, 0xbe,
  0x7f, 0x6e, 0x93, 0xbd, 0x49, 0xf9, 0x13, 0x3d, 0x16, 0x7d, 0x4a, 0xbd,
  0x59, 0xee, 0xa1, 0x3d, 0x83, 0x49, 0xe1, 0xbd, 0x16, 0x53, 0x8c, 0xbe,
  0x09, 0x64, 0x05, 0xbe, 0xfd, 0x7b, 0xa3, 0x3d, 0xb0, 0x5c, 0x00, 0x3e,
  0x2d, 0xe0, 0xa0, 0xbe, 0x08, 0xcf, 0x9f, 0xbe, 0x29, 0xad, 0xc5, 0xbe,
  0x3d, 0x3a, 0x86, 0x3e, 0x92, 0x44, 0x86, 0xbe, 0x41, 0xd6, 0xa2, 0x3d,
  0x6e, 0x0a, 0x5b, 0xbe, 0xab, 0x04, 0x85, 0xbd, 0xe4, 0x3e, 0xda, 0xbd,
  0x63, 0x82, 0x2f, 0xbb, 0x5b, 0x78, 0x8f, 0x3e, 0x04, 0xd2, 0x89, 0x3c,
  0xf7, 0x35, 0x1a, 0xbe, 0x44, 0x71, 0xd1, 0xbc, 0x95, 0x7a, 0xf7, 0x3d,
  0xd7, 0x92, 0x5e, 0x3d, 0xb5, 0x24, 0x33, 0xbe, 0x3f, 0xaa, 0x0b, 0xbe,
  0xdf, 0x6a, 0xa3, 0xbd, 0x67, 0x63, 0xc3, 0x3d, 0x56, 0xd8, 0xab, 0xbe,
  0xba, 0xce, 0x98, 0xbe, 0xe9, 0xb0, 0x84, 0xbe, 0xc5, 0x68, 0x34, 0xbe,
  0x41, 0x9c, 0xba, 0xbc, 0xc9, 0x11, 0xb3, 0xbd, 0xc4, 0x9a, 0xbc, 0x3c,
  0xf3, 0xa9, 0x11, 0xbe, 0xd1, 0x6b, 0x7d, 0xbe, 0x39, 0x63, 0xb3, 0xbd,
  0x56, 0xb5, 0xdd, 0x3d, 0xf0, 0x7c, 0x12, 0x3e, 0xba, 0x7e, 0xa3, 0xbd,
  0x31, 0x13, 0xc4, 0xbd, 0x14, 0xe1, 0x3a, 0xbe, 0xb3, 0x17, 0x7f, 0x3d,
  0x8d, 0x88, 0x91, 0xbe, 0xb2, 0x93, 0x7e, 0xbe, 0xb1, 0xbe, 0x3c, 0xbe,
  0x79, 0x8e, 0x35, 0xbe, 0xf4, 0x47, 0xa9, 0xbd, 0xb2, 0xf8, 0xad, 0xbd,
  0xa8, 0x48, 0x60, 0xbe, 0x1f, 0x42, 0x2d, 0xbe, 0x56, 0xf4, 0x28, 0xbe,
  0x0e, 0x92, 0x9f, 0xbd, 0xbc, 0xe2, 0x33, 0x3d, 0x5f, 0x30, 0x97, 0x3d,
  0x62, 0xd5, 0xb2, 0xbe, 0x4c, 0xc7, 0x80, 0xbe, 0x52, 0xd5, 0x00, 0xbf,
  0x4a, 0x8f, 0xa6, 0x3d, 0xb7, 0xb5, 0xae, 0xbe, 0xef, 0x9e, 0x76, 0xbd,
  0xf9, 0x54, 0xa6, 0xbd, 0x87, 0x0b, 0x03, 0xbe, 0xfd, 0xd3, 0x5e, 0x3d,
  0xc8, 0xfe, 0xd2, 0xbc, 0xec, 0x14, 0x56, 0x3d, 0x6d, 0x82, 0xff, 0x3d,
  0xbc, 0xbf, 0x07, 0xbe, 0x24, 0x99, 0xc8, 0xbd, 0x0f, 0xdb, 0x73, 0xbc,
  0x5a, 0x69, 0x64, 0x3d, 0xc3, 0xa4, 0x2b, 0xbe, 0xdd, 0xa8, 0x6c, 0xbe,
  0x4c, 0x15, 0x90, 0xbe, 0xc9, 0x3b, 0x06, 0xbd, 0x7f, 0x82, 0xc5, 0xbe,
  0x05, 0x5e, 0x0a, 0xbe, 0x74, 0xea, 0xd8, 0x3c, 0x05, 0x1a, 0x5e, 0x3d,
  0x0f, 0xc8, 0xd3, 0x3d, 0x9f, 0x94, 0xbd, 0xbd, 0x86, 0x03, 0x03, 0x3e,
  0x51, 0xd3, 0xd9, 0x3d, 0x0f, 0x91, 0x31, 0xbe, 0xb7, 0xf3, 0x8b, 0xbb,
  0x01, 0x79, 0xab, 0xbe, 0xdc, 0xee, 0xe1, 0x3b, 0x58, 0xf8, 0x65, 0xbe,
  0x52, 0x43, 0x3e, 0x3e, 0xd3, 0x52, 0x1b, 0xbe, 0xc1, 0x0f, 0x9a, 0xbe,
  0x68, 0x62, 0xf8, 0xbd, 0x34, 0xf4, 0x91, 0x3e, 0xac, 0xd8, 0x23, 0x3d,
  0xf3, 0xcd, 0x0a, 0xbe, 0xbc, 0xbb, 0x7b, 0xbd, 0x8f, 0x20, 0x27, 0x3c,
  0xba, 0x88, 0x1a, 0x3e, 0x05, 0xf8, 0x41, 0x3d, 0x19, 0x7e, 0x49, 0x3e,
  0x2f, 0x96, 0x22, 0xbe, 0x12, 0x3b, 0xa8, 0xbe, 0x06, 0x29, 0x6b, 0xbf,
  0x36, 0x05, 0xd1, 0xbc, 0x0f, 0x5b, 0xbb, 0x3d, 0xb2, 0x63, 0x20, 0xbd,
  0xab, 0x4e, 0x2c, 0xbe, 0xd8, 0xa7, 0x4c, 0x3b, 0x31, 0x2d, 0xd3, 0x3d,
  0xf1, 0x64, 0x06, 0x3d, 0x5a, 0xb9, 0x0c, 0xbe, 0x32, 0x68, 0x88, 0x3c,
  0x55, 0xcf, 0x04, 0x3e, 0x17, 0x34, 0x20, 0xbe, 0x7b, 0x0f, 0x9d, 0x3d,
  0xb2, 0xf8, 0xe3, 0x3e, 0x68, 0x4d, 0xb8, 0xbe, 0x78, 0xd1, 0x98, 0xbe,
  0xf3, 0xf6, 0xba, 0xbf, 0xb0, 0xda, 0xbe, 0x3c, 0x4f, 0x5b, 0x85, 0x3d,
  0x40, 0x3b, 0x71, 0x3d, 0x38, 0x26, 0x00, 0xbc, 0xd1, 0xff, 0x82, 0x3e,
  0x5e, 0xe2, 0x2d, 0x3e, 0x10, 0xc0, 0xfa, 0x3c, 0x6b, 0x5e, 0x1f, 0xbe,
  0xfd, 0xd7, 0x87, 0x3d, 0xa3, 0xa3, 0xa0, 0x3e, 0x79, 0x5f, 0x2a, 0x3d,
  0xc3, 0x7b, 0x23, 0x3d, 0xc3, 0xa0, 0xbd, 0x3e, 0x36, 0x48, 0x7e, 0x3b,
  0x1a, 0xb3, 0xbe, 0xbd, 0x69, 0x1b, 0xae, 0xbf, 0x1a, 0xec, 0xd6, 0xbb,
  0xed, 0xca, 0xc0, 0x3d, 0xd7, 0x18, 0x8e, 0x3d, 0x3d, 0x7b, 0x1d, 0x3c,
  0xc7, 0xad, 0xbc, 0x3e, 0x5a, 0xda, 0x1a, 0x3e, 0x08, 0x61, 0x4b, 0x3d,
  0x4e, 0x71, 0xdc, 0xbd, 0x18, 0xce, 0xfa, 0x3d, 0x42, 0xfe, 0x4a, 0x3e,
  0x48, 0xf9, 0x5c, 0x3e, 0x0b, 0x1a, 0x0d, 0x3e, 0xc3, 0x15, 0xa9, 0x3d,
  0x03, 0x1e, 0xae, 0x3c, 0x4f, 0x5a, 0xcf, 0xbe, 0x14, 0x89, 0x25, 0xbf,
  0x4e, 0x89, 0x82, 0x3d, 0x68, 0x2a, 0x1e, 0x3e, 0xe9, 0xdd, 0x3f, 0xbd,
  0x72, 0xf8, 0xa0, 0x3c, 0x85, 0x4a, 0x0d, 0x3e, 0xca, 0x54, 0x9c, 0x3d,
  0xaa, 0x49, 0x52, 0x3d, 0x8c, 0xc3, 0xb2, 0xbe, 0xb4, 0xa9, 0xb3, 0xbd,
  0x0c, 0x36, 0x79, 0x3e, 0x1e, 0x10, 0x44, 0x3e, 0x7d, 0x38, 0x5b, 0xbc,
  0xff, 0xed, 0x6c, 0x3e, 0xcd, 0xe2, 0x69, 0xbd, 0xed, 0xb2, 0x34, 0xbf,
  0xf4, 0xec, 0x49, 0xbf, 0xa3, 0x98, 0x0d, 0xbd, 0x8c, 0x2e, 0x45, 0x3e,
  0x1c, 0x6e, 0xb5, 0xbc, 0xc2, 0x04, 0x3e, 0x3d, 0x30, 0xec, 0x1f, 0x3e,
  0x5a, 0x87, 0xe3, 0x3d, 0x16, 0xf2, 0x79, 0x3d, 0x78, 0x42, 0x94, 0xbe,
  0x60, 0x90, 0x91, 0xbd, 0xff, 0x30, 0x11, 0x3d, 0x20, 0x5e, 0x03, 0x3e,
  0x52, 0x48, 0x45, 0x3d, 0x36, 0x59, 0xf6, 0xba, 0xb1, 0xcd, 0xdf, 0xbd,
  0xab, 0x41, 0x1c, 0xbe, 0x82, 0xa9, 0x83, 0xbe, 0x6a, 0x7c, 0x15, 0xbe,
  0x3f, 0xcb, 0x99, 0x3d, 0x84, 0x8e, 0xb4, 0x3d, 0xb8, 0xd1, 0x04, 0x3d,
  0xa2, 0x21, 0x64, 0x3e, 0x22, 0xd1, 0x7c, 0x3d, 0x61, 0x91, 0x3b, 0xbc,
  0x80, 0x6e, 0xa0, 0x3d, 0x64, 0xdb, 0x9d, 0xbe, 0xe3, 0x44, 0x25, 0x3e,
  0x6e, 0x0e, 0xa0, 0x3e, 0xc7, 0x33, 0x87, 0x3d, 0x98, 0xb0, 0x12, 0xbf,
  0x31, 0x0a, 0x38, 0x3d, 0x78, 0x6f, 0x3e, 0x3d, 0x67, 0x51, 0xb7, 0xbd,
  0x42, 0x28, 0x4b, 0xbe, 0x72, 0x6d, 0x08, 0xbd, 0x62, 0x73, 0xcd, 0xbe,
  0x1c, 0x4e, 0x13, 0x3c, 0xd3, 0xeb, 0x49, 0xbf, 0xf2, 0x10, 0x94, 0xbd,
  0x7a, 0xd8, 0x4e, 0xbc, 0x73, 0x1e, 0xda, 0x3c, 0xb0, 0x03, 0x9f, 0xbd,
  0x11, 0xe5, 0xb6, 0xbd, 0x17, 0x34, 0xe8, 0xbc, 0xd0, 0x72, 0x86, 0xbd,
  0x7b, 0x15, 0x82, 0x3b, 0x4e, 0x28, 0x4a, 0x3d, 0x57, 0x30, 0xe8, 0x3c,
  0xc1, 0x24, 0x81, 0xbe, 0x42, 0x17, 0xea, 0xbe, 0xbd, 0xf1, 0x0a, 0xbc,
  0x63, 0x6b, 0x06, 0x3e, 0xa9, 0xa8, 0xb2, 0x3c, 0x06, 0x05, 0x6f, 0xbe,
  0x76, 0x37, 0x47, 0x3d, 0xce, 0x0c, 0x20, 0x3c, 0xd2, 0xc8, 0x2a, 0xbc,
  0x88, 0xdc, 0x80, 0xbe, 0xa7, 0x97, 0x04, 0xbd, 0x63, 0xfc, 0xc5, 0x3c,
  0x38, 0xbf, 0x8a, 0x3b, 0x4b, 0xba, 0x5d, 0x3e, 0x6f, 0x70, 0x81, 0x3d,
  0xec, 0xdd, 0x66, 0xbb, 0x67, 0x07, 0xcc, 0xbe, 0x01, 0x4c, 0xb5, 0x3d,
  0xe9, 0x25, 0x32, 0x3c, 0xe1, 0xf5, 0x58, 0x3e, 0xe6, 0xec, 0x9d, 0xbd,
  0x65, 0x1d, 0x27, 0xbe, 0x1a, 0x3d, 0xbb, 0xbd, 0xdb, 0xd7, 0x80, 0x3c,
  0x70, 0x7a, 0x37, 0x3d, 0x4c, 0x1c, 0x7a, 0xbe, 0x70, 0x2d, 0x1c, 0xbe,
  0x03, 0x28, 0x96, 0x3c, 0x00, 0x3b, 0x25, 0xb6, 0x27, 0x96, 0xc0, 0x3c,
  0xbb, 0x6b, 0xa5, 0x3c, 0x48, 0x6a, 0x1a, 0xba, 0xed, 0x6e, 0xe2, 0xbe,
  0x77, 0x72, 0xb2, 0xbd, 0x88, 0xee, 0xe7, 0xbc, 0x16, 0xb4, 0xba, 0x3d,
  0xdb, 0x5e, 0x40, 0x3c, 0x5e, 0x91, 0x5a, 0x3e, 0x70, 0xd2, 0x14, 0x3e,
  0x14, 0x8a, 0xaf, 0x3b, 0xde, 0x16, 0xab, 0x3c, 0x37, 0x7d, 0x55, 0xbe,
  0xe1, 0x55, 0x48, 0x3d, 0xe7, 0xda, 0x19, 0x3e, 0x59, 0x4b, 0x24, 0xbd,
  0x63, 0x5a, 0x87, 0xbe, 0x93, 0xd3, 0x7d, 0x3a, 0x0e, 0x6f, 0x22, 0xbd,
  0xf7, 0x7c, 0x5e, 0xbe, 0x3c, 0xce, 0x93, 0xbe, 0x8f, 0x0f, 0xde, 0x3c,
  0x70, 0xe1, 0x93, 0xbe, 0x86, 0xf9, 0x30, 0x3c, 0xbb, 0xe5, 0x6e, 0xbe,
  0xcd, 0x72, 0x6d, 0x3d, 0x17, 0x46, 0x55, 0xba, 0xd6, 0xec, 0x8c, 0x3d,
  0xf8, 0xb2, 0x56, 0xbe, 0xce, 0x91, 0xf5, 0x3d, 0x61, 0x7c, 0x68, 0x3e,
  0xa9, 0xf3, 0x9e, 0xbc, 0x35, 0xab, 0x86, 0xbe, 0x03, 0xe8, 0xf2, 0xba,
  0xae, 0x58, 0x94, 0x3c, 0x2a, 0xca, 0x0c, 0xbe, 0x1f, 0xa3, 0x37, 0xbf,
  0x08, 0x98, 0x90, 0x3c, 0xad, 0x20, 0xeb, 0xbe, 0x5f, 0x54, 0x15, 0xbd,
  0x98, 0xac, 0x9f, 0xbe, 0x18, 0xbe, 0x1b, 0x3e, 0xa5, 0x34, 0x1b, 0x3b,
  0x75, 0x25, 0xb8, 0x3d, 0x3e, 0xad, 0xaf, 0x3d, 0x9d, 0x82, 0x4c, 0x3d,
  0x9c, 0x50, 0x83, 0x3e, 0x76, 0x75, 0x7a, 0x3c, 0x4b, 0x58, 0x25, 0xbe,
  0x82, 0xbe, 0x96, 0x3d, 0x4c, 0x74, 0xe5, 0x3c, 0x87, 0x66, 0xfd, 0xbd,
  0x1b, 0x52, 0x67, 0xbd, 0xca, 0x9c, 0x85, 0xbb, 0xb1, 0xeb, 0xdc, 0xbd,
  0x66, 0xcf, 0x7b, 0xbc, 0x27, 0xab, 0x25, 0xbe, 0x7c, 0x44, 0xd9, 0xbd,
  0xc5, 0xd9, 0x2a, 0x3d, 0xbc, 0x9b, 0xb7, 0xbd, 0x22, 0x57, 0x1a, 0xbe,
  0x16, 0x25, 0xc2, 0xbd, 0x7a, 0xf9, 0x52, 0xbd, 0x88, 0x5c, 0x0a, 0xbf,
  0x57, 0x8c, 0x1c, 0xbe, 0x6c, 0x7e, 0x9c, 0xbe, 0xe8, 0xa6, 0x61, 0xbe,
  0xc1, 0x36, 0x41, 0xbf, 0x26, 0x3a, 0x15, 0xbe, 0xe0, 0x42, 0xb0, 0x3d,
  0xc9, 0xf4, 0x24, 0x3c, 0xe0, 0xed, 0x1a, 0xbf, 0xe9, 0xaf, 0x3d, 0xbe,
  0x72, 0x4c, 0x2d, 0xbe, 0x0f, 0x40, 0x62, 0x3d, 0x44, 0x59, 0x24, 0x3d,
  0x72, 0x73, 0x7f, 0xbe, 0xe4, 0x22, 0x5a, 0xbe, 0x28, 0xd6, 0x73, 0xbe,
  0xf6, 0xcd, 0xed, 0xbe, 0x66, 0x16, 0xf1, 0xbd, 0x3b, 0xae, 0x90, 0xbe,
  0xba, 0x3f, 0x42, 0x3e, 0x5c, 0xcd, 0x19, 0xbf, 0xe4, 0xc5, 0xc3, 0xbe,
  0x04, 0x03, 0xa2, 0x3d, 0xb0, 0x5e, 0xad, 0xbd, 0x20, 0xb9, 0x15, 0xbe,
  0xd1, 0x26, 0x4e, 0xbd, 0x4a, 0xa7, 0x4e, 0xbe, 0xe5, 0x2a, 0xa0, 0x3c,
  0x17, 0xb0, 0x03, 0x3e, 0xfd, 0xe6, 0x87, 0xbe, 0xde, 0x62, 0x57, 0xbe,
  0xaf, 0x88, 0x0d, 0x3e, 0xbe, 0x61, 0x12, 0xbf, 0x16, 0x81, 0xb7, 0xbd,
  0xac, 0x48, 0x34, 0xbe, 0xe3, 0xa2, 0x07, 0x3e, 0x4e, 0x90, 0xe3, 0xbe,
  0x6f, 0xbe, 0x2b, 0xbe, 0xde, 0x31, 0x2d, 0xbd, 0x5a, 0xe1, 0x4a, 0xbe,
  0x14, 0x1d, 0x43, 0x3e, 0x2c, 0x1e, 0x49, 0x3b, 0xee, 0x56, 0x89, 0xbe,
  0xd6, 0x47, 0xcf, 0x3b, 0x7f, 0xe2, 0x2a, 0x3e, 0x98, 0xfa, 0x14, 0xbe,
  0x8c, 0xa6, 0x39, 0xbe, 0xb5, 0x3d, 0xca, 0xbe, 0x53, 0x74, 0xa8, 0xbe,
  0x4c, 0x80, 0x4f, 0xbc, 0xfc, 0x84, 0x23, 0x3e, 0x37, 0x04, 0x2b, 0x3d,
  0x0b, 0x06, 0xac, 0xbe, 0x97, 0x67, 0xd8, 0xbe, 0xb5, 0x34, 0x29, 0x3c,
  0x04, 0x61, 0x5b, 0xbd, 0xbc, 0xe7, 0x5f, 0x3e, 0xb6, 0x2d, 0x32, 0xbe,
  0xca, 0x74, 0x9e, 0xbe, 0x4d, 0x5c, 0x70, 0x3b, 0xae, 0xef, 0x21, 0x3e,
  0xe5, 0x2c, 0x4d, 0xbe, 0x68, 0x43, 0x53, 0xbe, 0x0d, 0xdf, 0xa7, 0xbe,
  0x59, 0xc9, 0x8b, 0xbe, 0xfc, 0x4b, 0x2c, 0xbe, 0x69, 0xc2, 0xaa, 0x3e,
  0xc8, 0x02, 0x4a, 0xbe, 0x18, 0x1a, 0x1d, 0xbf, 0x7a, 0xea, 0x35, 0xbe,
  0xd0, 0x5b, 0xb3, 0x3c, 0x0e, 0xb1, 0x85, 0xbe, 0x94, 0x7c, 0x2c, 0x3e,
  0x76, 0xa1, 0x41, 0xbe, 0x51, 0xdd, 0x01, 0xbf, 0xbe, 0xe2, 0xf4, 0xbb,
  0x01, 0xe1, 0xa0, 0x3c, 0x2d, 0xe5, 0x97, 0xbe, 0xc4, 0xf7, 0xf3, 0xbe,
  0x02, 0x40, 0xa5, 0xbe, 0xbb, 0xd3, 0x85, 0xbe, 0x41, 0x6f, 0xeb, 0xba,
  0x75, 0x29, 0x6a, 0x3e, 0x87, 0x62, 0xbf, 0xbb, 0x2d, 0xf9, 0xca, 0xbe,
  0x3c, 0xc4, 0xae, 0xbe, 0x89, 0xb5, 0x1c, 0xbe, 0x2d, 0xff, 0x85, 0xbe,
  0x6e, 0xe9, 0x49, 0x3e, 0xeb, 0xf2, 0x3a, 0xbe, 0xf0, 0xc6, 0x9f, 0xbe,
  0x7e, 0xf0, 0x2f, 0xbd, 0x9d, 0x0c, 0xfa, 0x3d, 0x9b, 0xf8, 0xa9, 0xbe,
  0x4c, 0x7f, 0x80, 0xbe, 0xf9, 0x43, 0x2f, 0xbe, 0x66, 0xcf, 0x58, 0xba,
  0x7d, 0xf1, 0x06, 0xbe, 0x2a, 0xfd, 0xa0, 0x3d, 0x4c, 0xa4, 0xd2, 0x3c,
  0xc6, 0x83, 0x3f, 0xbe, 0x0c, 0x63, 0x7d, 0x3d, 0xf3, 0xc1, 0x93, 0xbd,
  0x8a, 0x3d, 0x22, 0xbe, 0x11, 0xf4, 0x17, 0x3e, 0xbd, 0xb6, 0xfb, 0xbc,
  0xb0, 0x62, 0xfd, 0xbe, 0x8c, 0x99, 0x5c, 0xbd, 0xc7, 0x5c, 0xc3, 0xbd,
  0xeb, 0x75, 0x2b, 0xbe, 0x3b, 0x5f, 0x1a, 0xbf, 0x65, 0x54, 0xae, 0xbe,
  0x9e, 0x2a, 0x28, 0xbe, 0xb3, 0x67, 0x9e, 0xbe, 0xad, 0x38, 0x68, 0x3e,
  0xbb, 0xe7, 0xbd, 0xbc, 0x36, 0x34, 0x76, 0xbe, 0xc8, 0xf4, 0xc5, 0xbe,
  0x48, 0xf5, 0x12, 0x3e, 0x68, 0x36, 0x79, 0xbe, 0x1b, 0x45, 0x96, 0x3e,
  0x6b, 0x24, 0x16, 0xbd, 0xd1, 0x1d, 0xef, 0xbe, 0x66, 0x6c, 0x1b, 0xbd,
  0xf8, 0xf4, 0x92, 0x3e, 0xb6, 0xfb, 0x9e, 0xbe, 0x70, 0xf6, 0xe5, 0xbc,
  0xcc, 0x56, 0x94, 0xbd, 0xa5, 0xb4, 0x2d, 0xbe, 0x10, 0x59, 0x9e, 0xbe,
  0xa1, 0xc6, 0x00, 0x3d, 0x8e, 0xa7, 0x57, 0xbe, 0xeb, 0x29, 0x07, 0xbf,
  0xc3, 0xe2, 0x8f, 0xbe, 0x45, 0x19, 0x76, 0xbd, 0x90, 0x57, 0x01, 0xbf,
  0x3f, 0x1a, 0x3e, 0x3e, 0xfc, 0x64, 0x20, 0xbe, 0x56, 0x00, 0x05, 0xbf,
  0x36, 0x54, 0x06, 0xbd, 0xe7, 0x27, 0x98, 0x3e, 0xe7, 0xf5, 0xb8, 0xbe,
  0x16, 0x51, 0x0b, 0xbe, 0x4a, 0xc3, 0xe6, 0x3d, 0x8e, 0x8e, 0xa5, 0xbd,
  0x42, 0x93, 0xa4, 0xbe, 0x93, 0x79, 0x58, 0x3e, 0x82, 0x3c, 0x0e, 0x3d,
  0x90, 0x9a, 0x14, 0xbf, 0x29, 0x3e, 0x86, 0xbe, 0x93, 0x7a, 0x08, 0xbe,
  0x0d, 0x72, 0xad, 0xbe, 0x73, 0xa7, 0x79, 0xbe, 0x19, 0x00, 0xa8, 0xbe,
  0xb4, 0x5a, 0xff, 0xbd, 0x58, 0x76, 0x2b, 0xbc, 0x2f, 0x9b, 0x84, 0x3e,
  0xc6, 0x54, 0xab, 0xbe, 0x99, 0x0b, 0xbc, 0xbe, 0x4d, 0x4a, 0x20, 0xbe,
  0x34, 0x42, 0xea, 0xbd, 0x4d, 0x25, 0x67, 0xbe, 0x45, 0xa0, 0x3f, 0x3d,
  0x68, 0xbe, 0xbb, 0x3c, 0x62, 0xb1, 0xae, 0xbe, 0x7f, 0x83, 0xbe, 0xbe,
  0xf0, 0x33, 0xe5, 0xbd, 0x9f, 0xf2, 0x32, 0xbe, 0x8c, 0x55, 0x8c, 0x3d,
  0xa7, 0x84, 0xc9, 0xbe, 0xb1, 0xb9, 0x82, 0xbe, 0xac, 0x4a, 0xdf, 0xba,
  0x1e, 0x68, 0x60, 0x3e, 0x3e, 0xdb, 0xf1, 0xbe, 0x03, 0x0e, 0x08, 0xbf,
  0xa6, 0xea, 0x58, 0xbe, 0xfc, 0xfa, 0xe8, 0xbd, 0x53, 0xf2, 0xa4, 0xbd,
  0x62, 0x05, 0x4a, 0x3e, 0xbd, 0x5a, 0xb8, 0xbc, 0xc1, 0x46, 0xb4, 0xbe,
  0x57, 0xd2, 0xd4, 0xbd, 0x5b, 0x10, 0xf7, 0x3c, 0xe0, 0x66, 0x33, 0xbe,
  0xa1, 0x25, 0x09, 0x3e, 0x67, 0x9e, 0x9b, 0xbe, 0x58, 0x09, 0xc1, 0xbe,
  0x99, 0x88, 0x02, 0x3c, 0x1d, 0x34, 0x2d, 0x3d, 0xbe, 0x52, 0xc5, 0xbe,
  0xbb, 0xb2, 0xaa, 0xbe, 0x4f, 0xb5, 0x0f, 0xbe, 0x27, 0x80, 0x6a, 0xbd,
  0x61, 0x33, 0x53, 0xbe, 0xab, 0xba, 0x8e, 0x3e, 0xac, 0x87, 0x5d, 0xbd,
  0x46, 0xe5, 0xdb, 0xbe, 0x7f, 0xa9, 0x24, 0xbe, 0xc1, 0xfa, 0x21, 0x3d,
  0x16, 0xb1, 0x8e, 0xbd, 0x67, 0xde, 0xc1, 0x3e, 0xd2, 0x09, 0x58, 0xbe,
  0x5c, 0xba, 0xf3, 0xbd, 0x44, 0xb6, 0x20, 0x3d, 0xb9, 0xf7, 0xd8, 0x3d,
  0xeb, 0x2d, 0xce, 0x3a, 0x30, 0x3e, 0x9a, 0xbe, 0x57, 0x9d, 0xd2, 0xbd,
  0xd4, 0x1d, 0x3e, 0x3d, 0x2d, 0x5e, 0xcd, 0xbd, 0x55, 0x4c, 0x8e, 0xbd,
  0x3d, 0x42, 0x49, 0xbd, 0x02, 0xbf, 0x81, 0xbe, 0xf7, 0x28, 0x53, 0xbe,
  0x48, 0x9f, 0x67, 0x3d, 0x59, 0x2d, 0x5f, 0xbe, 0x60, 0x0d, 0xbc, 0xbd,
  0x24, 0xb0, 0x05, 0xbe, 0x54, 0x24, 0xd9, 0xbe, 0x8e, 0xb1, 0x46, 0x3d,
  0x7e, 0x2a, 0x87, 0xbe, 0x7d, 0x2e, 0xfd, 0x3d, 0x75, 0xbe, 0x47, 0xbe,
  0x12, 0x3d, 0xcf, 0xbe, 0x4d, 0x2e, 0x5c, 0x3b, 0x4e, 0xdc, 0x53, 0x3e,
  0xa9, 0xa2, 0x39, 0xbe, 0x17, 0x7e, 0xb7, 0xbe, 0x35, 0x5e, 0x14, 0x3e,
  0x89, 0xb7, 0x48, 0xbe, 0x9c, 0x91, 0xf5, 0x3d, 0xaa, 0x9b, 0x3a, 0x3e,
  0xc8, 0xd9, 0x03, 0xbf, 0x22, 0x58, 0x17, 0xbe, 0xeb, 0x46, 0x54, 0xbe,
  0xdb, 0x4c, 0x6b, 0xba, 0x2f, 0x1c, 0x02, 0xbe, 0xdd, 0x47, 0x4b, 0xbd,
  0x6f, 0xc3, 0x29, 0xbc, 0x50, 0x12, 0xb7, 0xbe, 0x3d, 0x9b, 0xbd, 0x3d,
  0x54, 0xd7, 0x8e, 0xbd, 0xbd, 0x9c, 0xa7, 0xbe, 0xd8, 0xcd, 0xc0, 0xbd,
  0x6b, 0xf9, 0x17, 0x3e, 0xfd, 0x88, 0xb7, 0x3e, 0xb0, 0x6e, 0xed, 0x3d,
  0x6b, 0x75, 0x70, 0xbe, 0x7e, 0x85, 0x76, 0xbe, 0x8e, 0x88, 0xe6, 0x3b,
  0xee, 0x80, 0x33, 0xbe, 0x8d, 0x71, 0x58, 0x3c, 0x42, 0x33, 0x77, 0xbe,
  0x25, 0xe3, 0xdc, 0xbc, 0x8d, 0x51, 0xfc, 0xbd, 0x7d, 0xb4, 0x56, 0xbe,
  0xb5, 0xc0, 0x30, 0x3d, 0xc8, 0xb1, 0xa5, 0xbc, 0x79, 0xc1, 0x7b, 0xbe,
  0x7f, 0x30, 0x7a, 0xbe, 0xc5, 0xe1, 0x6a, 0x3d, 0x27, 0x21, 0x19, 0x3f,
  0xa3, 0x40, 0x63, 0xbd, 0x83, 0x38, 0xb0, 0xbc, 0x7f, 0xe8, 0x7b, 0xbe,
  0x2f, 0x64, 0xad, 0x3d, 0x83, 0x74, 0x32, 0xbd, 0x5f, 0x74, 0x50, 0x3d,
  0x77, 0x9d, 0x4a, 0xbe, 0xcb, 0x8a, 0x2c, 0xbe, 0x22, 0x30, 0x7b, 0xbe,
  0x1f, 0x5f, 0x7d, 0xbe, 0x78, 0x3d, 0x30, 0x3e, 0x9f, 0xbd, 0x2e, 0x3e,
  0xed, 0xdf, 0x0a, 0xbe, 0xb5, 0xc8, 0x99, 0xbe, 0x17, 0xe5, 0x14, 0x3d,
  0xea, 0x08, 0x13, 0x3f, 0x86, 0xcb, 0x0b, 0xbd, 0x9a, 0x56, 0x42, 0x3d,
  0xbd, 0xb6, 0x9a, 0xbe, 0xe8, 0x38, 0xd0, 0xbc, 0x15, 0xc6, 0x0a, 0x3e,
  0xa0, 0xb7, 0x0a, 0x3d, 0x14, 0xe9, 0x77, 0xbe, 0xfb, 0xa0, 0x1b, 0xbe,
  0xe3, 0x59, 0x44, 0xbe, 0x3e, 0xbe, 0x7b, 0xbe, 0xc8, 0x46, 0x62, 0x3d,
  0x49, 0x98, 0x16, 0x3e, 0x95, 0xb1, 0x24, 0xbe, 0x08, 0x37, 0xa5, 0xbe,
  0x08, 0xbe, 0xf1, 0xbb, 0xca, 0x21, 0xfc, 0x3e, 0xf3, 0x4f, 0x5a, 0xbd,
  0x7c, 0x71, 0xa1, 0xbc, 0xc3, 0x1d, 0xc8, 0xbe, 0x1e, 0x8c, 0x48, 0xbe,
  0x38, 0x98, 0x22, 0x3c, 0xb6, 0xc8, 0x6b, 0x3c, 0x0d, 0x2a, 0xc8, 0xbe,
  0x66, 0xcb, 0xa6, 0xbd, 0x51, 0xb1, 0x91, 0xbd, 0xd4, 0xe8, 0xc9, 0xba,
  0x11, 0xf6, 0xa8, 0x3d, 0x55, 0x4c, 0xfe, 0x3c, 0x74, 0xb1, 0x44, 0x3d,
  0x9d, 0x05, 0x22, 0xbf, 0xb1, 0x4c, 0x8e, 0xbb, 0x3c, 0x91, 0xa4, 0x3e,
  0xbf, 0x82, 0x34, 0x3e, 0xf4, 0x11, 0xe9, 0xbe, 0x2a, 0x43, 0x08, 0xbe,
  0xe7, 0x7c, 0x95, 0x3e, 0x3b, 0x12, 0x27, 0x3d, 0x24, 0x31, 0x13, 0x3e,
  0x77, 0xa7, 0xd8, 0xbd, 0x27, 0x72, 0x85, 0x3e, 0x3d, 0xd7, 0x1b, 0xbf,
  0x8e, 0x36, 0x44, 0xbf, 0x43, 0x39, 0xd5, 0x3d, 0xe6, 0xb8, 0xa6, 0x3e,
  0xff, 0xa4, 0x83, 0xbe, 0x7d, 0x75, 0x88, 0xbe, 0x40, 0xdb, 0x60, 0xbe,
  0x29, 0xc8, 0x94, 0xbd, 0x0d, 0x17, 0x04, 0x3e, 0xb1, 0xcb, 0xb3, 0xbe,
  0x95, 0x15, 0x0a, 0xbd, 0x61, 0x48, 0xda, 0x3b, 0x90, 0x3d, 0xe2, 0xbd,
  0x68, 0x36, 0x37, 0x3d, 0xc2, 0x95, 0x72, 0xbd, 0x8e, 0x2a, 0x65, 0xbb,
  0xb4, 0x9e, 0xe7, 0xbd, 0x43, 0xfc, 0x34, 0xbf, 0xe4, 0x45, 0xe1, 0xbb,
  0x66, 0xbe, 0x95, 0xbe, 0x4a, 0xe7, 0x70, 0xbe, 0x3e, 0x56, 0x1b, 0xbf,
  0xe9, 0x1a, 0xc2, 0xbe, 0x83, 0x8d, 0xa3, 0xbe, 0xae, 0xf0, 0x9a, 0xbe,
  0x02, 0xc1, 0x1f, 0xbd, 0x37, 0x7a, 0xf7, 0xbe, 0x26, 0x57, 0x8d, 0x3d,
  0x61, 0xaa, 0xa9, 0xbd, 0x06, 0xe4, 0xd7, 0xbb, 0x11, 0xd0, 0x62, 0x3e,
  0x76, 0x25, 0xa5, 0xbe, 0x31, 0xc1, 0xbd, 0x3d, 0x4b, 0x2c, 0xdc, 0x3d,
  0x7d, 0xb7, 0x09, 0x3e, 0x61, 0x54, 0xc2, 0x3d, 0x90, 0x2f, 0x5c, 0x3d,
  0x0c, 0x1c, 0xc1, 0xbe, 0xf8, 0x01, 0x63, 0xbf, 0xb9, 0x83, 0x07, 0xbf,
  0xd5, 0xa1, 0x44, 0xbe, 0x07, 0xe1, 0x83, 0xbe, 0x92, 0x28, 0xa0, 0xbe,
  0xe8, 0xd2, 0x3f, 0x3e, 0x71, 0x9c, 0x23, 0xbe, 0x43, 0x14, 0xc9, 0xbc,
  0xf4, 0xad, 0x84, 0x3c, 0x27, 0x1f, 0xf6, 0xbe, 0x43, 0x34, 0x70, 0xbd,
  0x3a, 0xd3, 0xba, 0xbd, 0x9f, 0xaf, 0x63, 0x3d, 0x5f, 0x09, 0x32, 0xbd,
  0x9f, 0xd1, 0x49, 0xbd, 0xc9, 0x75, 0xad, 0xbe, 0xa1, 0x99, 0x5f, 0xbf,
  0xee, 0xbc, 0x99, 0xbe, 0xf5, 0x1f, 0x5d, 0xbe, 0x8a, 0x6c, 0x6f, 0xbe,
  0xec, 0x62, 0xc6, 0xbe, 0xc7, 0x90, 0x57, 0xbc, 0xd5, 0xbf, 0x2b, 0x3d,
  0xe5, 0x82, 0xc0, 0x3b, 0x48, 0xb5, 0x8f, 0xbe, 0x30, 0xb0, 0xa3, 0xbe,
  0x8a, 0x96, 0x3e, 0xbe, 0xbd, 0x37, 0x44, 0xbd, 0x8b, 0xf6, 0xd3, 0x3d,
  0xae, 0x23, 0x79, 0x3d, 0x77, 0x2c, 0x5f, 0x3d, 0x9c, 0xe7, 0x63, 0xbe,
  0xd2, 0x45, 0x77, 0xbf, 0x2a, 0xe7, 0xf5, 0xbe, 0xbe, 0x42, 0x57, 0xbd,
  0xba, 0xf0, 0x79, 0xbd, 0x02, 0x06, 0x58, 0xbe, 0x37, 0xdc, 0x38, 0xbe,
  0x89, 0x06, 0x77, 0x3e, 0x06, 0xa5, 0x14, 0xbd, 0x8e, 0xd6, 0xb1, 0xbb,
  0x3b, 0xac, 0x00, 0xbf, 0x2e, 0x2d, 0xc9, 0x3e, 0x7d, 0x33, 0xab, 0x3e,
  0xe9, 0x78, 0x81, 0x3d, 0x04, 0x12, 0x42, 0xbc, 0x63, 0x14, 0xa9, 0xbe,
  0x55, 0xe7, 0x9b, 0x3d, 0x83, 0x61, 0x29, 0xbe, 0x0a, 0x6a, 0xa9, 0xbe,
  0x33, 0x4c, 0x4c, 0xbe, 0x05, 0x14, 0x80, 0xbe, 0x76, 0xe4, 0x6e, 0xbe,
  0x24, 0xe9, 0x5a, 0xbe, 0xb7, 0x49, 0x43, 0x3e, 0xe3, 0xac, 0xf6, 0xbc,
  0xbb, 0xab, 0x68, 0x3d, 0x21, 0x61, 0xd2, 0xbe, 0xa1, 0xd5, 0x31, 0x3e,
  0x7e, 0x9e, 0x7f, 0x3e, 0x0f, 0x48, 0x02, 0x3b, 0xdc, 0x36, 0x27, 0xbe,
  0xb2, 0x4a, 0x77, 0xbe, 0x0b, 0x55, 0xf7, 0x3c, 0x24, 0x86, 0xdd, 0xbd,
  0xed, 0xa7, 0xce, 0xbe, 0x9e, 0xfc, 0x93, 0xbd, 0x9b, 0xda, 0xe4, 0xbe,
  0x1b, 0x47, 0xa0, 0xbe, 0x7e, 0xa8, 0x87, 0xbe, 0x14, 0x5a, 0xa5, 0x3e,
  0x4f, 0xc8, 0xc3, 0xbd, 0x8d, 0x3b, 0x59, 0x3d, 0xbc, 0x11, 0xdc, 0xbd,
  0x82, 0x41, 0x1b, 0x3e, 0x0a, 0x51, 0xcb, 0x3e, 0xfb, 0x93, 0x41, 0xbe,
  0x5f, 0x52, 0x7a, 0xbe, 0x70, 0xf5, 0x3d, 0x3d, 0x95, 0x4b, 0xf2, 0x3c,
  0x5f, 0xdf, 0x7d, 0xbc, 0xc1, 0x1d, 0x7b, 0xbe, 0xa8, 0xa5, 0x9a, 0x3d,
  0xcc, 0x98, 0xf1, 0xbd, 0x68, 0x1b, 0xb5, 0xbd, 0x5c, 0x0c, 0x44, 0xbe,
  0x1a, 0xb9, 0xb1, 0xbe, 0x05, 0x16, 0x98, 0x3c, 0x78, 0xac, 0x88, 0xbe,
  0xff, 0x01, 0x8c, 0x3d, 0x81, 0x95, 0x98, 0x3d, 0x6b, 0x09, 0x43, 0xbd,
  0x4e, 0x43, 0x29, 0x3e, 0xa1, 0xcf, 0x13, 0x3e, 0x14, 0x13, 0x1b, 0xbe,
  0xe8, 0xac, 0xcf, 0xbe, 0xfe, 0xa6, 0xe4, 0x3d, 0xa2, 0x85, 0xb4, 0xbe,
  0x5b, 0x72, 0x45, 0x3e, 0xad, 0xfd, 0x48, 0xbe, 0x97, 0xf4, 0x22, 0xbf,
  0x57, 0x64, 0x6f, 0xbd, 0xaf, 0x2c, 0x63, 0x3e, 0x0d, 0x70, 0xa1, 0x3d,
  0x7f, 0x88, 0x10, 0xbe, 0x11, 0xe7, 0x41, 0x3d, 0x07, 0xdc, 0x3f, 0x3d,
  0xfe, 0xa2, 0x21, 0xbe, 0xc1, 0xac, 0x3b, 0xbc, 0xc3, 0x55, 0xc7, 0x3d,
  0x65, 0xe1, 0x8f, 0xbe, 0x4d, 0xd7, 0x67, 0xbd, 0x22, 0x0c, 0xf9, 0x3d,
  0xf6, 0xd0, 0x46, 0x3e, 0x4f, 0xe7, 0x19, 0x3d, 0x2c, 0x64, 0xee, 0xbd,
  0xc7, 0xc0, 0xf4, 0xbe, 0x2c, 0xab, 0x91, 0xbe, 0x96, 0xb2, 0x35, 0x3d,
  0x1d, 0x0a, 0x8e, 0x3d, 0x08, 0xce, 0x00, 0xbe, 0xe9, 0x66, 0x0b, 0xbe,
  0x45, 0x6c, 0x74, 0xbe, 0x7f, 0xed, 0xe7, 0x3d, 0xf0, 0x07, 0x14, 0x3e,
  0x42, 0xd7, 0xd7, 0x3c, 0x0a, 0x0e, 0x39, 0xbc, 0xfe, 0x5a, 0x68, 0xbe,
  0x3e, 0xcf, 0x37, 0x3e, 0x25, 0x9e, 0x85, 0x3e, 0x4c, 0x2c, 0xe3, 0xbd,
  0x02, 0xc8, 0xd3, 0xbd, 0x40, 0x19, 0x8e, 0xbe, 0x0b, 0x48, 0x19, 0xbe,
  0x01, 0x33, 0x88, 0xbb, 0x24, 0x7e, 0xae, 0x3c, 0x92, 0x56, 0xf8, 0xbc,
  0x9a, 0xd8, 0x5b, 0x3d, 0x27, 0x48, 0x12, 0xbc, 0x9a, 0x6a, 0x82, 0x3e,
  0x51, 0xbf, 0x7b, 0x3d, 0x2b, 0x74, 0xfb, 0x3b, 0x2b, 0xdd, 0x09, 0x3d,
  0xbd, 0xab, 0xed, 0xbd, 0x59, 0xd1, 0x78, 0xbc, 0xb3, 0x9a, 0xb9, 0x3e,
  0x19, 0xcb, 0x4c, 0xbe, 0xd5, 0xd6, 0xb8, 0xbc, 0x26, 0xe0, 0xce, 0xbd,
  0x2f, 0x47, 0x60, 0xbd, 0x3d, 0x63, 0x20, 0x3e, 0xed, 0xd5, 0x82, 0x3d,
  0xe4, 0x11, 0x29, 0xbe, 0x3b, 0x73, 0x21, 0xbb, 0x15, 0xfc, 0x0f, 0xbe,
  0x48, 0xdb, 0x5e, 0x3d, 0x16, 0x80, 0xa5, 0xbd, 0xcf, 0x37, 0x33, 0xbd,
  0x28, 0x39, 0x8f, 0xbd, 0xc7, 0x28, 0x2a, 0xbe, 0x00, 0x46, 0x12, 0x3e,
  0xc3, 0x23, 0xcb, 0x3e, 0xb1, 0xc4, 0x89, 0xbd, 0x8b, 0xb5, 0xc6, 0x3d,
  0xa7, 0x03, 0x99, 0xbe, 0x83, 0x72, 0x2b, 0xbc, 0x66, 0xc0, 0x72, 0xbd,
  0x75, 0xcc, 0x49, 0x3d, 0x2a, 0x80, 0x83, 0xbe, 0x29, 0x0c, 0x1f, 0x3e,
  0xd7, 0xf1, 0xd4, 0xbd, 0x94, 0x37, 0xce, 0x3e, 0x28, 0xb9, 0xf2, 0x3d,
  0x7e, 0xc0, 0x5d, 0xbd, 0x60, 0x56, 0xa4, 0xbc, 0xa1, 0x5a, 0xb9, 0xbe,
  0xe6, 0xf6, 0x14, 0x3d, 0xd1, 0x7c, 0x3c, 0x3e, 0xd9, 0x10, 0x08, 0x3e,
  0x53, 0x99, 0x1d, 0xbe, 0x7f, 0xa7, 0x59, 0xbe, 0x2c, 0xc1, 0xe4, 0x3c,
  0xda, 0x66, 0x91, 0xbd, 0x40, 0xd1, 0x8d, 0x3b, 0xc4, 0x8c, 0xb7, 0xbd,
  0x81, 0x55, 0x89, 0x3d, 0x11, 0xd1, 0x9b, 0xbe, 0x6c, 0xc3, 0xdd, 0xbe,
  0xae, 0xe8, 0x1f, 0x3e, 0xa3, 0x08, 0x5a, 0xbb, 0x9a, 0x42, 0x3d, 0xbe,
  0x62, 0x08, 0xb7, 0xbe, 0x2d, 0xbb, 0x7b, 0xbe, 0x9c, 0xba, 0x3c, 0xbe,
  0xf2, 0x87, 0xf1, 0x3d, 0xc0, 0x92, 0x37, 0xbe, 0xbd, 0xa6, 0x27, 0xbe,
  0x25, 0xe3, 0xee, 0xbd, 0x62, 0xfd, 0xff, 0xff, 0x10, 0x00, 0x00, 0x00,
  0x07, 0x00, 0x00, 0x00, 0x14, 0x00, 0x00, 0x00, 0x2c, 0x00, 0x00, 0x00,
  0x02, 0x00, 0x00, 0x00, 0x10, 0x00, 0x00, 0x00, 0x70, 0x00, 0x00, 0x00,
  0x17, 0x00, 0x00, 0x00, 0x73, 0x65, 0x71, 0x75, 0x65, 0x6e, 0x74, 0x69,
  0x61, 0x6c, 0x2f, 0x64, 0x65, 0x6e, 0x73, 0x65, 0x2f, 0x4d, 0x61, 0x74,
  0x4d, 0x75, 0x6c, 0x00, 0xcc, 0xfc, 0xff, 0xff, 0xd6, 0xfd, 0xff, 0xff,
  0x04, 0x00, 0x00, 0x00, 0x08, 0x00, 0x00, 0x00, 0xff, 0xff, 0xff, 0xff,
  0x70, 0x00, 0x00, 0x00, 0x00, 0x00, 0x0e, 0x00, 0x18, 0x00, 0x08, 0x00,
  0x07, 0x00, 0x0c, 0x00, 0x10, 0x00, 0x14, 0x00, 0x0e, 0x00, 0x00, 0x00,
  0x00, 0x00, 0x00, 0x02, 0x10, 0x00, 0x00, 0x00, 0x06, 0x00, 0x00, 0x00,
  0x10, 0x00, 0x00, 0x00, 0x2c, 0x00, 0x00, 0x00, 0x01, 0x00, 0x00, 0x00,
  0x02, 0x00, 0x00, 0x00, 0x18, 0x00, 0x00, 0x00, 0x73, 0x65, 0x71, 0x75,
  0x65, 0x6e, 0x74, 0x69, 0x61, 0x6c, 0x2f, 0x66, 0x6c, 0x61, 0x74, 0x74,
  0x65, 0x6e, 0x2f, 0x43, 0x6f, 0x6e, 0x73, 0x74, 0x00, 0x00, 0x00, 0x00,
  0x34, 0xfd, 0xff, 0xff, 0x3e, 0xfe, 0xff, 0xff, 0x04, 0x00, 0x00, 0x00,
  0x10, 0x00, 0x00, 0x00, 0xaf, 0x89, 0x0b, 0xbe, 0xac, 0x5b, 0x43, 0xbf,
  0x72, 0xac, 0x38, 0xc0, 0x49, 0x87, 0x7e, 0x3f, 0x26, 0xfe, 0xff, 0xff,
  0x10, 0x00, 0x00, 0x00, 0x05, 0x00, 0x00, 0x00, 0x10, 0x00, 0x00, 0x00,
  0x44, 0x00, 0x00, 0x00, 0x01, 0x00, 0x00, 0x00, 0x04, 0x00, 0x00, 0x00,
  0x32, 0x00, 0x00, 0x00, 0x73, 0x65, 0x71, 0x75, 0x65, 0x6e, 0x74, 0x69,
  0x61, 0x6c, 0x2f, 0x64, 0x65, 0x6e, 0x73, 0x65, 0x5f, 0x31, 0x2f, 0x42,
  0x69, 0x61, 0x73, 0x41, 0x64, 0x64, 0x2f, 0x52, 0x65, 0x61, 0x64, 0x56,
  0x61, 0x72, 0x69, 0x61, 0x62, 0x6c, 0x65, 0x4f, 0x70, 0x2f, 0x72, 0x65,
  0x73, 0x6f, 0x75, 0x72, 0x63, 0x65, 0x00, 0x00, 0xa8, 0xfd, 0xff, 0xff,
  0xb2, 0xfe, 0xff, 0xff, 0x04, 0x00, 0x00, 0x00, 0x40, 0x00, 0x00, 0x00,
  0x51, 0xf4, 0x2a, 0xbf, 0x47, 0x20, 0x6a, 0x40, 0x2b, 0x89, 0x38, 0x3e,
  0xa5, 0xc9, 0x60, 0x3d, 0xdb, 0xdc, 0x9e, 0xbc, 0x2e, 0x52, 0x2f, 0xbf,
  0xbd, 0xc1, 0x5c, 0x3d, 0x3b, 0xce, 0xfa, 0xbe, 0xc5, 0x8b, 0x33, 0x40,
  0xa2, 0x1e, 0x52, 0x3f, 0x27, 0x91, 0xf8, 0xbf, 0x10, 0x75, 0xf6, 0xbf,
  0x1e, 0x67, 0x46, 0xbf, 0x51, 0xae, 0x05, 0xbd, 0xc7, 0xc6, 0x3a, 0xbf,
  0xb6, 0xff, 0xa7, 0xbd, 0xca, 0xfe, 0xff, 0xff, 0x10, 0x00, 0x00, 0x00,
  0x04, 0x00, 0x00, 0x00, 0x10, 0x00, 0x00, 0x00, 0x44, 0x00, 0x00, 0x00,
  0x01, 0x00, 0x00, 0x00, 0x10, 0x00, 0x00, 0x00, 0x30, 0x00, 0x00, 0x00,
  0x73, 0x65, 0x71, 0x75, 0x65, 0x6e, 0x74, 0x69, 0x61, 0x6c, 0x2f, 0x64,
  0x65, 0x6e, 0x73, 0x65, 0x2f, 0x42, 0x69, 0x61, 0x73, 0x41, 0x64, 0x64,
  0x2f, 0x52, 0x65, 0x61, 0x64, 0x56, 0x61, 0x72, 0x69, 0x61, 0x62, 0x6c,
  0x65, 0x4f, 0x70, 0x2f, 0x72, 0x65, 0x73, 0x6f, 0x75, 0x72, 0x63, 0x65,
  0x00, 0x00, 0x00, 0x00, 0x4c, 0xfe, 0xff, 0xff, 0x56, 0xff, 0xff, 0xff,
  0x04, 0x00, 0x00, 0x00, 0x40, 0x00, 0x00, 0x00, 0xfc, 0xd9, 0x29, 0xbf,
  0x9c, 0xe3, 0xd3, 0xb9, 0xc0, 0xe7, 0xe0, 0xbf, 0x9b, 0x11, 0x15, 0xbc,
  0x26, 0xd3, 0x5f, 0xbf, 0xa3, 0x98, 0x3f, 0xbf, 0xd2, 0x68, 0x44, 0xbb,
  0x30, 0xe8, 0x2f, 0xbe, 0x27, 0x5d, 0xce, 0xbf, 0xc8, 0xf8, 0xc1, 0xbf,
  0x94, 0x0c, 0x6c, 0x3e, 0xd4, 0x9b, 0x24, 0xbf, 0x09, 0xcf, 0x5e, 0xbc,
  0x9b, 0x12, 0x34, 0xbf, 0xda, 0xf3, 0x01, 0xc0, 0xc8, 0xad, 0x41, 0xbf,
  0x6e, 0xff, 0xff, 0xff, 0x10, 0x00, 0x00, 0x00, 0x03, 0x00, 0x00, 0x00,
  0x10, 0x00, 0x00, 0x00, 0x48, 0x00, 0x00, 0x00, 0x01, 0x00, 0x00, 0x00,
  0x10, 0x00, 0x00, 0x00, 0x33, 0x00, 0x00, 0x00, 0x73, 0x65, 0x71, 0x75,
  0x65, 0x6e, 0x74, 0x69, 0x61, 0x6c, 0x2f, 0x63, 0x6f, 0x6e, 0x76, 0x32,
  0x64, 0x5f, 0x31, 0x2f, 0x42, 0x69, 0x61, 0x73, 0x41, 0x64, 0x64, 0x2f,
  0x52, 0x65, 0x61, 0x64, 0x56, 0x61, 0x72, 0x69, 0x61, 0x62, 0x6c, 0x65,
  0x4f, 0x70, 0x2f, 0x72, 0x65, 0x73, 0x6f, 0x75, 0x72, 0x63, 0x65, 0x00,
  0x04, 0x00, 0x06, 0x00, 0x04, 0x00, 0x00, 0x00, 0x00, 0x00, 0x06, 0x00,
  0x08, 0x00, 0x04, 0x00, 0x06, 0x00, 0x00, 0x00, 0x04, 0x00, 0x00, 0x00,
  0x20, 0x00, 0x00, 0x00, 0x01, 0x6b, 0xb7, 0xbe, 0x39, 0x22, 0x3b, 0xc0,
  0x2a, 0x41, 0xbb, 0xbd, 0xf9, 0x60, 0x27, 0xbf, 0x15, 0x80, 0x19, 0xc0,
  0xb9, 0x51, 0x34, 0xc0, 0x17, 0x92, 0xce, 0xbe, 0x80, 0xe4, 0x2d, 0xc0,
  0x00, 0x00, 0x0e, 0x00, 0x14, 0x00, 0x04, 0x00, 0x00, 0x00, 0x08, 0x00,
  0x0c, 0x00, 0x10, 0x00, 0x0e, 0x00, 0x00, 0x00, 0x10, 0x00, 0x00, 0x00,
  0x02, 0x00, 0x00, 0x00, 0x10, 0x00, 0x00, 0x00, 0x44, 0x00, 0x00, 0x00,
  0x01, 0x00, 0x00, 0x00, 0x08, 0x00, 0x00, 0x00, 0x31, 0x00, 0x00, 0x00,
  0x73, 0x65, 0x71, 0x75, 0x65, 0x6e, 0x74, 0x69, 0x61, 0x6c, 0x2f, 0x63,
  0x6f, 0x6e, 0x76, 0x32, 0x64, 0x2f, 0x42, 0x69, 0x61, 0x73, 0x41, 0x64,
  0x64, 0x2f, 0x52, 0x65, 0x61, 0x64, 0x56, 0x61, 0x72, 0x69, 0x61, 0x62,
  0x6c, 0x65, 0x4f, 0x70, 0x2f, 0x72, 0x65, 0x73, 0x6f, 0x75, 0x72, 0x63,
  0x65, 0x00, 0x00, 0x00, 0x90, 0xff, 0xff, 0xff, 0x14, 0x00, 0x18, 0x00,
  0x04, 0x00, 0x00, 0x00, 0x08, 0x00, 0x0c, 0x00, 0x10, 0x00, 0x00, 0x00,
  0x00, 0x00, 0x14, 0x00, 0x14, 0x00, 0x00, 0x00, 0x14, 0x00, 0x00, 0x00,
  0x01, 0x00, 0x00, 0x00, 0x20, 0x00, 0x00, 0x00, 0x44, 0x00, 0x00, 0x00,
  0x2c, 0x00, 0x00, 0x00, 0x04, 0x00, 0x00, 0x00, 0x01, 0x00, 0x00, 0x00,
  0x40, 0x00, 0x00, 0x00, 0x03, 0x00, 0x00, 0x00, 0x01, 0x00, 0x00, 0x00,
  0x0c, 0x00, 0x00, 0x00, 0x63, 0x6f, 0x6e, 0x76, 0x32, 0x64, 0x5f, 0x69,
  0x6e, 0x70, 0x75, 0x74, 0x00, 0x00, 0x00, 0x00, 0x04, 0x00, 0x00, 0x00,
  0xff, 0xff, 0xff, 0xff, 0x40, 0x00, 0x00, 0x00, 0x03, 0x00, 0x00, 0x00,
  0x01, 0x00, 0x00, 0x00, 0xfc, 0xff, 0xff, 0xff, 0x04, 0x00, 0x04, 0x00,
  0x04, 0x00, 0x00, 0x00
};

unsigned int model_tflite_len = 13120;// Fill the int in `src/model.cc` here